<pad>	0
</s>	0
<unk>	0
<extra_id_0>	0
<extra_id_1>	0
<extra_id_2>	0
<extra_id_3>	0
<extra_id_4>	0
<extra_id_5>	0
<extra_id_6>	0
<extra_id_7>	0
<extra_id_8>	0
<extra_id_9>	0
<extra_id_10>	0
<extra_id_11>	0
<extra_id_12>	0
<extra_id_13>	0
<extra_id_14>	0
<extra_id_15>	0
<extra_id_16>	0
<extra_id_17>	0
<extra_id_18>	0
<extra_id_19>	0
<extra_id_20>	0
<extra_id_21>	0
<extra_id_22>	0
<extra_id_23>	0
<extra_id_24>	0
<extra_id_25>	0
<extra_id_26>	0
<extra_id_27>	0
<extra_id_28>	0
<extra_id_29>	0
<extra_id_30>	0
<extra_id_31>	0
<extra_id_32>	0
<extra_id_33>	0
<extra_id_34>	0
<extra_id_35>	0
<extra_id_36>	0
<extra_id_37>	0
<extra_id_38>	0
<extra_id_39>	0
<extra_id_40>	0
<extra_id_41>	0
<extra_id_42>	0
<extra_id_43>	0
<extra_id_44>	0
<extra_id_45>	0
<extra_id_46>	0
<extra_id_47>	0
<extra_id_48>	0
<extra_id_49>	0
<extra_id_50>	0
<extra_id_51>	0
<extra_id_52>	0
<extra_id_53>	0
<extra_id_54>	0
<extra_id_55>	0
<extra_id_56>	0
<extra_id_57>	0
<extra_id_58>	0
<extra_id_59>	0
<extra_id_60>	0
<extra_id_61>	0
<extra_id_62>	0
<extra_id_63>	0
<extra_id_64>	0
<extra_id_65>	0
<extra_id_66>	0
<extra_id_67>	0
<extra_id_68>	0
<extra_id_69>	0
<extra_id_70>	0
<extra_id_71>	0
<extra_id_72>	0
<extra_id_73>	0
<extra_id_74>	0
<extra_id_75>	0
<extra_id_76>	0
<extra_id_77>	0
<extra_id_78>	0
<extra_id_79>	0
<extra_id_80>	0
<extra_id_81>	0
<extra_id_82>	0
<extra_id_83>	0
<extra_id_84>	0
<extra_id_85>	0
<extra_id_86>	0
<extra_id_87>	0
<extra_id_88>	0
<extra_id_89>	0
<extra_id_90>	0
<extra_id_91>	0
<extra_id_92>	0
<extra_id_93>	0
<extra_id_94>	0
<extra_id_95>	0
<extra_id_96>	0
<extra_id_97>	0
<extra_id_98>	0
<extra_id_99>	0
.	-2.88053
(	-3.18511
▁	-3.48536
▁}	-3.68596
)	-3.68798
▁{	-3.69894
,	-3.70063
▁=	-3.93623
);	-3.97473
▁(	-4.19558
_	-4.3494
;	-4.35453
▁if	-4.50812
s	-4.69572
▁return	-4.71484
▁new	-4.93351
();	-5.00928
▁null	-5.04171
▁public	-5.05244
<	-5.05358
▁//	-5.11986
get	-5.16811
>	-5.20126
▁"	-5.3337
("	-5.347
▁String	-5.35481
▁+	-5.35661
()	-5.4743
String	-5.5555
▁==	-5.58822
Exception	-5.73204
▁int	-5.82028
▁final	-5.8239
▁the	-5.84625
().	-5.87642
▁for	-5.89898
▁this	-5.9089
▁void	-5.92712
())	-5.93457
▁!=	-5.95414
:	-6.00303
▁else	-6.03291
i	-6.04766
());	-6.05343
▁i	-6.06691
▁e	-6.08781
▁to	-6.10271
");	-6.10544
▁throw	-6.10568
▁@	-6.11816
(),	-6.1221
▁static	-6.13463
Type	-6.1611
[	-6.16754
",	-6.17903
▁get	-6.29295
Name	-6.30252
▁:	-6.30615
set	-6.34022
▁&&	-6.39367
▁throws	-6.40049
[]	-6.40863
add	-6.43054
▁is	-6.46719
T	-6.47361
length	-6.47701
▁try	-6.48212
▁<	-6.48814
))	-6.51256
Id	-6.51954
▁m	-6.54544
List	-6.54566
▁catch	-6.55137
Override	-6.58484
int	-6.59001
▁a	-6.59318
new	-6.63715
d	-6.64397
▁boolean	-6.65144
));	-6.65252
append	-6.65512
▁result	-6.70404
this	-6.72361
2	-6.73841
▁-	-6.7644
▁List	-6.76766
m	-6.77255
▁value	-6.77742
final	-6.78056
▁private	-6.78679
e	-6.80099
is	-6.80331
▁0;	-6.81248
Request	-6.81426
t	-6.82756
Value	-6.84621
▁Object	-6.85252
▁case	-6.86333
Map	-6.86792
-	-6.87969
ed	-6.89085
ing	-6.8929
n	-6.90195
'	-6.90446
class	-6.90587
▁false	-6.92711
S	-6.94236
Object	-6.9463
||	-6.95922
Class	-6.96679
▁true	-6.97117
▁in	-6.97325
▁set	-6.98825
▁*	-7.00527
File	-7.01969
r	-7.01974
a	-7.03661
c	-7.04343
x	-7.04461
]	-7.05188
/	-7.05336
▁(!	-7.05999
▁0)	-7.06572
▁request	-7.06795
Data	-7.10417
name	-7.12285
size	-7.12577
1	-7.1266
▁not	-7.12669
equals	-7.1269
Node	-7.13351
To	-7.16142
put	-7.16958
▁of	-7.17167
otocolMarshaller	-7.18712
Key	-7.19457
Context	-7.19578
Path	-7.19592
toString	-7.19814
▁name	-7.20461
▁be	-7.20542
▁0	-7.2116
Index	-7.21628
Info	-7.2377
▁double	-7.26579
▁type	-7.28425
▁?	-7.28471
value	-7.30977
▁IOException	-7.31479
▁pr	-7.34116
▁long	-7.36395
▁key	-7.3675
▁and	-7.37116
▁break	-7.38013
▁instanceof	-7.38942
▁create	-7.40046
▁p	-7.40318
key	-7.41688
▁c	-7.41827
++)	-7.41961
D	-7.43099
er	-7.43822
g	-7.44963
ID	-7.45616
▁>	-7.46344
getName	-7.46819
p	-7.46842
f	-7.46858
▁protected	-7.47896
"	-7.48323
Set	-7.49538
type	-7.50246
null	-7.50485
y	-7.50777
=	-7.50845
b	-7.52011
▁add	-7.52084
id	-7.52126
Builder	-7.52724
▁while	-7.53281
Factory	-7.53361
Element	-7.54038
Config	-7.54058
▁it	-7.54528
Entry	-7.55334
marshall	-7.55661
3	-7.56009
A	-7.56291
▁data	-7.56521
▁file	-7.56692
Message	-7.57122
▁Map	-7.57748
rgumentException	-7.58197
")	-7.58361
▁response	-7.58729
C	-7.59212
o	-7.59426
▁IllegalA	-7.59555
▁list	-7.59985
>>	-7.60263
v	-7.61011
Response	-7.61013
▁we	-7.61017
BINDING	-7.6132
▁t	-7.62385
▁T	-7.63092
create	-7.63735
▁path	-7.63918
▁ArrayList	-7.65181
State	-7.65199
Field	-7.65293
Result	-7.66506
▁index	-7.66564
Size	-7.66877
Count	-7.68274
▁byte	-7.68331
I	-7.70132
];	-7.7063
L	-7.71229
debug	-7.71906
▁sb	-7.72098
▁b	-7.72569
X	-7.73225
▁File	-7.73787
request	-7.7408
▁s	-7.74421
▁j	-7.74964
▁with	-7.75105
▁System	-7.75418
Configuration	-7.75628
▁!	-7.76176
▁start	-7.76522
▁from	-7.77042
<>(	-7.77129
to	-7.77307
Service	-7.77669
E	-7.77679
▁r	-7.78162
▁n	-7.78172
In	-7.78234
Manager	-7.78418
Utils	-7.78448
R	-7.7876
▁log	-7.78787
▁out	-7.79002
▁Class	-7.80599
Resource	-7.81683
F	-7.82542
j	-7.83192
isEmpty	-7.83296
▁marshall	-7.83786
Method	-7.84031
B	-7.84359
Handler	-7.8533
in	-7.85373
▁context	-7.856
With	-7.85843
▁x	-7.86076
next	-7.86593
Async	-7.86608
▁current	-7.86685
▁node	-7.8721
able	-7.87623
Event	-7.88551
index	-7.88854
out	-7.8942
P	-7.89817
▁_	-7.90396
getMessage	-7.90689
▁check	-7.91567
Property	-7.91588
tc	-7.9256
▁logger	-7.9259
From	-7.92621
data	-7.92657
k	-7.93155
For	-7.94248
ServiceResponse	-7.94279
▁on	-7.94547
Client	-7.94791
4	-7.95194
▁field	-7.95295
error	-7.95918
▁1	-7.96449
Constants	-7.9673
Filter	-7.97712
<?>	-7.97898
▁1)	-7.98025
▁Integer	-7.99722
▁input	-8.00066
";	-8.00304
▁StringBuilder	-8.00328
▁entry	-8.0095
▁method	-8.00955
▁I	-8.01009
Parameter	-8.01013
Group	-8.0137
▁+=	-8.01616
▁tc	-8.01696
Array	-8.01723
getValue	-8.01818
Time	-8.02214
Enabled	-8.02459
▁id	-8.03247
▁>=	-8.03569
remove	-8.03825
Stream	-8.03973
Error	-8.04492
▁target	-8.04884
++	-8.05549
Listener	-8.06431
▁message	-8.06519
▁end	-8.07067
▁buffer	-8.07155
V	-8.074
▁o	-8.07643
▁extends	-8.07677
u	-8.08205
▁super	-8.08265
Impl	-8.08275
▁read	-8.08666
Util	-8.08722
Item	-8.09208
▁'	-8.09524
write	-8.09755
▁ex	-8.09783
▁0,	-8.10119
Table	-8.1037
▁default	-8.10402
Cache	-8.10483
▁that	-8.10755
true	-8.11318
Properties	-8.11329
▁str	-8.11637
file	-8.11771
substring	-8.1186
info	-8.12389
path	-8.1242
▁->	-8.12646
Status	-8.12984
Text	-8.13254
▁/	-8.13377
format	-8.13778
l	-8.14434
K	-8.1448
▁f	-8.14629
Model	-8.14883
log	-8.14946
Integer	-8.15022
NAME	-8.15082
▁service	-8.15266
Buffer	-8.15302
▁state	-8.1534
▁Set	-8.15595
▁v	-8.15716
▁builder	-8.15824
▁max	-8.15971
▁do	-8.16544
Page	-8.17051
Level	-8.17353
.");	-8.17529
▁resource	-8.18253
▁map	-8.18498
Query	-8.18975
▁update	-8.18986
▁&	-8.19182
h	-8.19635
map	-8.20405
N	-8.20406
View	-8.20442
start	-8.20545
println	-8.20782
w	-8.2091
▁SdkClient	-8.20959
Length	-8.20964
▁source	-8.21032
"))	-8.2122
Date	-8.21583
result	-8.21749
Url	-8.22277
▁synchronized	-8.22546
▁size	-8.22635
▁query	-8.22737
G	-8.23018
▁all	-8.23035
Connection	-8.23066
▁1;	-8.23348
build	-8.23866
entry	-8.2437
By	-8.24713
Attribute	-8.251
Y	-8.25297
Instance	-8.25677
▁as	-8.26258
And	-8.2633
Code	-8.26529
Inner	-8.26791
▁first	-8.26791
[0]	-8.26894
▁next	-8.271
Token	-8.27173
read	-8.27234
▁object	-8.27768
▁has	-8.27775
▁LOG	-8.2795
▁finally	-8.28005
Expression	-8.28086
*	-8.28382
Number	-8.2841
al	-8.28673
▁y	-8.29056
O	-8.29292
node	-8.29309
()))	-8.29899
Options	-8.29965
client	-8.29991
▁java	-8.30097
▁msg	-8.30137
Collection	-8.30169
Invalid	-8.30183
▁count	-8.30326
close	-8.3057
M	-8.30689
0	-8.30875
TYPE	-8.31012
Callback	-8.31117
▁obj	-8.31467
byte	-8.31823
▁write	-8.31995
▁<=	-8.3244
▁%	-8.32587
()));	-8.32759
Version	-8.32882
){	-8.32945
contains	-8.33018
▁are	-8.33145
input	-8.33591
1,	-8.33788
▁d	-8.33891
▁url	-8.33919
▁*/	-8.34455
TracingEnabled	-8.34486
▁last	-8.34696
isAny	-8.34772
Of	-8.34981
▁ret	-8.35266
▁|	-8.35314
Provider	-8.35325
on	-8.3569
▁or	-8.35908
<?	-8.36242
▁element	-8.36587
▁config	-8.36646
▁an	-8.37102
Task	-8.37501
current	-8.37648
▁Exception	-8.37746
Dir	-8.37989
▁find	-8.38024
Offset	-8.38027
list	-8.38306
TraceComponent	-8.38614
H	-8.39658
▁values	-8.39867
Source	-8.39925
▁offset	-8.40005
Start	-8.40865
IOException	-8.40975
▁parent	-8.41157
util	-8.41365
▁parse	-8.4181
▁switch	-8.4186
str	-8.42013
▁remove	-8.42359
Header	-8.42457
Writer	-8.43123
getClass	-8.43297
▁Math	-8.43316
▁call	-8.43511
Line	-8.43592
User	-8.43799
Session	-8.44199
Content	-8.44503
▁com	-8.44529
▁length	-8.44724
Base	-8.44849
Column	-8.45263
▁output	-8.46094
▁event	-8.46125
].	-8.46393
Rule	-8.4669
▁/*	-8.46825
URL	-8.4686
or	-8.46878
▁class	-8.47255
▁l	-8.47281
▁float	-8.47377
source	-8.47536
Position	-8.47644
Execution	-8.47748
RuntimeException	-8.47796
Action	-8.47864
Entity	-8.47901
max	-8.47988
z	-8.48007
Point	-8.48053
Reader	-8.48295
▁have	-8.48627
isEntry	-8.48633
▁array	-8.48692
▁Observable	-8.48721
▁k	-8.49102
long	-8.49204
URI	-8.49254
Bytes	-8.4955
java	-8.4956
getKey	-8.49903
Job	-8.49993
Definition	-8.50014
U	-8.50109
esourceGroupName	-8.50207
InputStream	-8.50338
Unable	-8.50388
▁session	-8.50574
W	-8.50675
▁text	-8.50762
Package	-8.50844
Function	-8.51115
re	-8.51396
Mode	-8.5241
▁buf	-8.52511
▁line	-8.52912
▁no	-8.53272
▁error	-8.53421
▁h	-8.53488
▁re	-8.53581
Server	-8.53749
context	-8.54166
▁must	-8.54247
ly	-8.54354
Tree	-8.54414
Helper	-8.54639
SuppressWarnings	-8.54888
End	-8.55023
▁args	-8.55089
▁V	-8.55125
Str	-8.55716
service	-8.56271
▁client	-8.56279
▁char	-8.56721
▁user	-8.56812
Operation	-8.56854
field	-8.57073
▁params	-8.57092
Container	-8.57312
Metadata	-8.57367
▁can	-8.57408
Ref	-8.57559
▁other	-8.57704
▁row	-8.57781
end	-8.57946
Values	-8.58146
▁argument	-8.58164
Long	-8.58178
Tag	-8.58238
Descriptor	-8.58253
has	-8.58367
▁HashMap	-8.5859
▁cannot	-8.58656
▁found	-8.58822
min	-8.59133
Pattern	-8.5924
Log	-8.59344
▁by	-8.59451
Bean	-8.59579
▁writer	-8.59599
from	-8.59655
▁root	-8.5989
Location	-8.59898
▁C	-8.6004
resource	-8.60698
Image	-8.60859
▁continue	-8.60983
▁connection	-8.60984
valueOf	-8.61008
Registry	-8.6102
▁old	-8.61155
▁filter	-8.61176
Types	-8.61293
▁min	-8.61594
▁property	-8.61759
(0,	-8.62123
stream	-8.62159
Or	-8.62568
hasNext	-8.62716
state	-8.62848
On	-8.63252
of	-8.63269
KEY	-8.63419
▁before	-8.63764
▁Tr	-8.63772
Component	-8.63977
text	-8.64395
▁JSON	-8.64436
All	-8.64561
Iterator	-8.64994
Row	-8.65194
Parameters	-8.65438
Update	-8.65783
Block	-8.66154
iterator	-8.66227
▁val	-8.66396
Reference	-8.66616
ch	-8.66791
▁Long	-8.66983
▁base	-8.672
line	-8.67458
?	-8.67477
isDebugEnabled	-8.67553
q	-8.67614
▁Collection	-8.67864
response	-8.67941
8	-8.6798
▁content	-8.68019
System	-8.68083
Document	-8.68465
▁properties	-8.68582
buffer	-8.68785
▁A	-8.68844
target	-8.69244
▁so	-8.69266
▁len	-8.69461
▁will	-8.69636
▁time	-8.69988
▁required	-8.70094
0);	-8.70142
▁Boolean	-8.70165
Template	-8.70196
Record	-8.70213
▁cache	-8.70274
▁sub	-8.70298
\	-8.70367
getId	-8.70391
false	-8.70903
pos	-8.70941
indexOf	-8.7107
Range	-8.711
Input	-8.71363
▁one	-8.7168
▁clazz	-8.71746
Address	-8.72025
▁token	-8.72147
▁model	-8.72309
▁exception	-8.72398
Annotation	-8.72412
▁use	-8.72469
config	-8.72611
Param	-8.72699
▁SibTr	-8.72791
Channel	-8.72874
64	-8.72909
body	-8.73136
J	-8.73565
▁process	-8.73607
message	-8.73738
object	-8.73752
Option	-8.73902
{	-8.74083
url	-8.74383
Output	-8.74517
▁parameters	-8.74577
as	-8.74628
5	-8.7471
method	-8.74936
No	-8.75045
es	-8.75221
▁pos	-8.75267
event	-8.75476
▁string	-8.75557
Names	-8.75596
update	-8.75688
▁delete	-8.75776
▁S	-8.75781
▁w	-8.75968
▁stream	-8.76101
getType	-8.7625
Policy	-8.76397
Width	-8.76526
Double	-8.76723
Parser	-8.76897
▁item	-8.77092
▁table	-8.77099
1.	-8.77135
exit	-8.77262
+	-8.77447
▁should	-8.77501
Format	-8.77628
▁If	-8.77686
Command	-8.77934
charAt	-8.7824
▁build	-8.78301
Target	-8.78473
▁assert	-8.78588
▁Double	-8.78749
Get	-8.78832
▁options	-8.79252
▁Cms	-8.79324
▁src	-8.79551
▁g	-8.79997
▁num	-8.80135
Mapping	-8.80384
Lock	-8.80475
▁format	-8.80487
with	-8.8084
VALUE	-8.80848
startsWith	-8.80886
Nullable	-8.80942
▁passed	-8.81006
Queue	-8.81067
Char	-8.81546
▁instance	-8.81636
▁LOGGER	-8.81939
warn	-8.81968
▁code	-8.8202
table	-8.82062
clear	-8.82091
▁match	-8.82498
getInstance	-8.82533
Params	-8.82664
▁version	-8.83256
Cms	-8.83301
▁E	-8.83953
Access	-8.84276
parent	-8.84702
▁at	-8.84752
addAll	-8.84925
offset	-8.85
getProperty	-8.85403
OutputStream	-8.85621
="	-8.86102
▁dest	-8.86137
Messages	-8.86549
Call	-8.86574
▁child	-8.86952
▁Pr	-8.86977
it	-8.87573
▁IllegalState	-8.87599
▁run	-8.87625
▁only	-8.87634
unchecked	-8.87747
▁res	-8.87897
group	-8.87954
▁image	-8.88113
▁R	-8.88149
The	-8.88164
▁job	-8.88279
values	-8.88673
Link	-8.89022
(...)	-8.89043
▁task	-8.89064
▁column	-8.89229
▁server	-8.89273
user	-8.89431
6	-8.89484
Json	-8.89517
obj	-8.897
Pos	-8.89802
(@	-8.89841
Boolean	-8.8994
As	-8.89957
Directory	-8.89976
[1]	-8.90129
▁was	-8.90416
filter	-8.90711
Sub	-8.90794
First	-8.90843
Int	-8.90872
▁bytes	-8.90967
▁already	-8.91181
count	-8.91565
▁load	-8.91874
Attributes	-8.91926
2,	-8.91955
▁un	-8.92109
Keys	-8.92165
query	-8.92295
▁-1)	-8.92313
find	-8.92477
Fields	-8.92614
Def	-8.9315
Throwable	-8.93485
Wrapper	-8.93521
Style	-8.9409
delete	-8.94178
"));	-8.94184
Store	-8.94324
▁handle	-8.9453
▁{}	-8.94855
Label	-8.95245
Failed	-8.95411
ion	-8.95518
▁init	-8.9591
Read	-8.95976
▁configuration	-8.96022
ED	-8.96669
▁Iterator	-8.96688
▁group	-8.96837
Root	-8.97073
EClass	-8.9717
trim	-8.97447
▁need	-8.97486
Vector	-8.97578
▁local	-8.97928
▁header	-8.98146
▁entity	-8.98392
▁copy	-8.98441
▁Node	-8.98572
▁reader	-8.98658
Default	-8.99191
IN	-8.99237
Prefix	-8.99249
Transaction	-8.99292
ll	-8.99403
ation	-9.00317
Settings	-9.00439
If	-9.00615
▁attribute	-9.0076
▁P	-9.00828
Color	-9.00841
Ids	-9.00865
double	-9.01025
LA	-9.0155
containsKey	-9.01665
▁Type	-9.01686
Application	-9.01773
▁-1;	-9.0178
split	-9.01953
▁Collections	-9.02194
Uri	-9.02272
▁tmp	-9.02272
ex	-9.02571
Thread	-9.02819
▁J	-9.02955
parse	-9.02994
at	-9.03188
▁{}",	-9.03281
▁execute	-9.03476
▁Get	-9.03672
DEFAULT	-9.03697
Match	-9.03738
Calendar	-9.0374
un	-9.03756
▁but	-9.0378
▁date	-9.03857
com	-9.04144
▁uri	-9.04186
▁component	-9.04566
▁2	-9.0457
Interface	-9.04797
▁listener	-9.0484
Schema	-9.04849
Scope	-9.04908
equalsIgnoreCase	-9.04992
org	-9.05207
INSTANCE	-9.05257
msg	-9.05451
▁Optional	-9.0552
Button	-9.05568
▁block	-9.05572
args	-9.05579
▁sql	-9.05664
>()	-9.0568
At	-9.05847
▁record	-9.05926
▁status	-9.06164
▁q	-9.06466
▁arg	-9.06612
Port	-9.06634
Description	-9.06657
▁lock	-9.06722
code	-9.06837
Doc	-9.06973
▁number	-9.07329
▁page	-9.07517
▁any	-9.07821
root	-9.07821
Order	-9.08011
New	-9.0812
element	-9.08132
2);	-9.08396
Adapter	-9.08444
if	-9.08567
Z	-9.08616
err	-9.08827
2.	-9.08887
session	-9.08902
▁Date	-9.08903
check	-9.09268
entrySet	-9.09653
Resources	-9.09842
▁json	-9.108
▁left	-9.10825
time	-9.10923
▁'"	-9.10978
item	-9.11069
::	-9.11166
Files	-9.11206
▁URL	-9.11214
2)	-9.11577
Segment	-9.11838
▁empty	-9.11952
▁parameter	-9.12134
Locale	-9.12205
ar	-9.1238
token	-9.12414
array	-9.12726
val	-9.12802
last	-9.12853
trace	-9.12931
▁view	-9.13047
Next	-9.13223
]);	-9.13241
base	-9.13244
SIZE	-9.13396
Local	-9.13416
Handle	-9.13518
Future	-9.13592
Project	-9.13601
Len	-9.13947
channel	-9.14112
Parent	-9.14273
▁ch	-9.14505
row	-9.14505
Pool	-9.14585
Unit	-9.146
▁param	-9.14729
ic	-9.14831
instance	-9.15509
ERROR	-9.1562
src	-9.15636
Check	-9.1569
Nonnull	-9.15803
replace	-9.15803
▁The	-9.15889
Delete	-9.15952
▁point	-9.16118
==	-9.16355
▁total	-9.16433
▁N	-9.16586
Generator	-9.16727
Converter	-9.16803
st	-9.16928
num	-9.16966
position	-9.17065
32	-9.17228
▁tag	-9.17402
Out	-9.17414
▁Method	-9.17541
model	-9.17597
▁1]	-9.17687
▁close	-9.17786
▁handler	-9.17892
no	-9.1802
▁width	-9.18066
▁StringBuffer	-9.18185
Num	-9.18363
▁then	-9.18574
▁<<	-9.18987
▁X	-9.19035
sub	-9.19109
▁resources	-9.19341
▁++	-9.1937
MAX	-9.19496
execute	-9.19518
width	-9.19649
Consumer	-9.19785
rderByComparator	-9.19859
▁up	-9.20145
▁callback	-9.20313
▁command	-9.20362
NonNull	-9.20369
".	-9.20416
clazz	-9.20466
Msg	-9.20551
Not	-9.20579
LOG	-9.20616
%	-9.20661
▁InputStream	-9.20709
Frame	-9.20809
▁right	-9.20893
1);	-9.21019
▁B	-9.21033
Height	-9.21303
DB	-9.21401
Bundle	-9.21469
▁info	-9.21508
10	-9.21681
Un	-9.22038
Obj	-9.22203
Timeout	-9.22348
print	-9.22408
Part	-9.22558
GET	-9.23028
▁search	-9.23132
▁HashSet	-9.23217
first	-9.23241
▁O	-9.23286
XML	-9.23286
▁fields	-9.23515
lang	-9.23535
▁position	-9.23587
lock	-9.23628
▁temp	-9.2364
internal	-9.23817
Control	-9.23909
▁now	-9.24043
▁H	-9.24107
▁Thread	-9.24155
Stack	-9.24278
Internal	-9.24285
▁action	-9.24298
Elements	-9.24381
Re	-9.24565
char	-9.24631
").	-9.2472
getString	-9.24727
ClassName	-9.24869
Xml	-9.25015
Identifier	-9.25152
▁there	-9.25261
▁rule	-9.25439
▁xml	-9.25551
Spec	-9.25617
▁ref	-9.2565
buf	-9.25731
load	-9.25739
ING	-9.25859
do	-9.25901
Chain	-9.26006
▁when	-9.26204
▁thread	-9.26365
Proxy	-9.26562
▁1,	-9.26765
init	-9.2682
property	-9.26908
▁register	-9.26923
▁channel	-9.27012
7	-9.27099
SQL	-9.2713
("\	-9.27137
Headers	-9.27218
▁locale	-9.27261
▁order	-9.27288
http	-9.27362
▁does	-9.27432
Var	-9.27771
Statement	-9.27779
Math	-9.27781
Processor	-9.27802
Val	-9.28441
▁generate	-9.28481
Interval	-9.28527
exists	-9.28549
▁This	-9.28699
ClassLoader	-9.28959
Write	-9.29224
matcher	-9.29248
string	-9.2936
▁pattern	-9.29432
default	-9.29471
len	-9.2963
tag	-9.29841
Variable	-9.30214
an	-9.30249
▁db	-9.30258
▁height	-9.30407
Notification	-9.30521
Executor	-9.30568
Module	-9.30614
server	-9.30701
Body	-9.30777
Hash	-9.30797
▁send	-9.30816
▁container	-9.3093
\\	-9.30962
Certificate	-9.31004
▁req	-9.31084
▁D	-9.31145
Extension	-9.3117
Child	-9.3118
▁make	-9.31195
builder	-9.31372
Logger	-9.31513
sql	-9.31605
Host	-9.31619
▁function	-9.31741
Matrix	-9.31922
Create	-9.31956
Feature	-9.3237
!	-9.32393
Tags	-9.32419
job	-9.32621
json	-9.32668
param	-9.32691
(!	-9.32743
register	-9.32966
Enum	-9.33006
▁validate	-9.33124
logger	-9.33222
open	-9.33426
▁Func	-9.33537
Change	-9.33603
▁prefix	-9.33886
ArrayList	-9.33915
task	-9.3406
▁4	-9.34105
▁convert	-9.34309
Summary	-9.34322
old	-9.3434
++]	-9.34738
App	-9.34845
Form	-9.34849
Byte	-9.34878
Void	-9.35116
11	-9.35118
entity	-9.35132
Last	-9.35157
▁host	-9.3525
cache	-9.35406
RE	-9.35492
Search	-9.35575
Sequence	-9.35612
▁after	-9.35617
properties	-9.35637
date	-9.35647
▁non	-9.35649
ER	-9.35675
▁been	-9.35957
▁props	-9.36001
content	-9.36013
image	-9.36076
Character	-9.36154
sRequest	-9.36292
▁2)	-9.36527
▁"'	-9.36546
invoke	-9.3679
pli	-9.36806
connection	-9.36857
float	-9.36919
1<	-9.36988
00	-9.37066
resources	-9.37333
▁hash	-9.37406
NO	-9.37452
output	-9.37805
status	-9.37971
▁Element	-9.38061
Args	-9.38066
Counter	-9.3809
Folder	-9.38128
▁document	-9.38163
▁which	-9.38184
xml	-9.38218
Max	-9.38248
Endpoint	-9.38252
Idx	-9.38413
newInstance	-9.38427
Repository	-9.38504
validate	-9.38971
ur	-9.39044
Layout	-9.3909
Panel	-9.3918
other	-9.39383
▁"+	-9.39393
Process	-9.3943
▁label	-9.39502
▁annotation	-9.39541
ele	-9.39602
▁""	-9.39626
Resolver	-9.39627
▁attributes	-9.398
FILE	-9.39968
▁L	-9.4004
▁We	-9.40632
Device	-9.40668
getPath	-9.40811
StringUtils	-9.40982
▁resolve	-9.411
Destination	-9.4117
NotNull	-9.41189
▁col	-9.41198
boolean	-9.41267
Database	-9.41604
NOT	-9.41712
Entries	-9.41716
▁"/	-9.41739
Http	-9.41866
Stats	-9.41919
▁Arrays	-9.41932
▁Create	-9.42119
Member	-9.4221
Argument	-9.42471
UTF	-9.42482
idx	-9.4252
▁DB	-9.4253
Mapper	-9.42575
notNull	-9.42771
exception	-9.42807
uri	-9.42838
▁template	-9.43067
toArray	-9.43075
db	-9.43263
▁valid	-9.43459
Api	-9.43528
▁Check	-9.43565
▁-1	-9.43618
column	-9.4383
▁results	-9.43882
Graph	-9.43886
▁Abstract	-9.43978
▁conn	-9.43995
=0;	-9.44094
(1);	-9.44122
api	-9.44404
matches	-9.44407
▁destination	-9.44423
Pair	-9.44518
▁limit	-9.44718
ent	-9.44758
Limit	-9.44813
rs	-9.44902
Edge	-9.44974
▁files	-9.45033
▁TODO	-9.4517
Current	-9.45289
Dialog	-9.45429
Engine	-9.45563
Nodes	-9.45631
ref	-9.45655
▁directory	-9.45756
printStackTrace	-9.45841
keySet	-9.45855
en	-9.45863
!"	-9.45873
Cluster	-9.45878
NON	-9.4588
record	-9.45958
bPackage	-9.46353
header	-9.46528
Classes	-9.46579
Strategy	-9.46625
Role	-9.46791
▁ignore	-9.46816
getParent	-9.46926
Account	-9.46969
Copy	-9.46994
▁z	-9.4706
▁resp	-9.47145
▁defaultValue	-9.47168
action	-9.47282
page	-9.4732
▁scope	-9.47496
▁port	-9.47513
version	-9.47614
Cannot	-9.47918
child	-9.48059
Java	-9.48062
▁put	-9.48063
▁ctx	-9.4809
▁ServiceFuture	-9.48184
▁iter	-9.48356
▁Path	-9.48404
▁Point	-9.48405
Batch	-9.48452
▁same	-9.48552
▁stop	-9.48584
urrentTimeMillis	-9.48613
▁Response	-9.48617
▁Log	-9.48678
arg	-9.48688
all	-9.48752
12	-9.48776
▁address	-9.48779
bytes	-9.48836
▁G	-9.49045
Password	-9.49048
Script	-9.49116
▁SQLException	-9.49149
process	-9.49183
host	-9.49213
/{	-9.49347
▁store	-9.49434
▁factory	-9.49454
1)	-9.49637
▁may	-9.49665
▁option	-9.4978
Report	-9.49907
google	-9.50027
view	-9.50094
▁keys	-9.50193
label	-9.5026
getAttribute	-9.50364
▁queue	-9.50419
▁future	-9.50512
Optional	-9.50542
ip	-9.50607
block	-9.50614
▁than	-9.50673
Null	-9.50698
▁provider	-9.50944
[2]	-9.50989
▁failed	-9.50999
Meta	-9.51073
▁bundle	-9.51094
Auth	-9.51199
Activity	-9.51244
▁org	-9.51264
res	-9.51396
▁original	-9.51436
▁don	-9.51498
▁expected	-9.51534
Environment	-9.51558
▁iterator	-9.51594
Bounds	-9.51786
Is	-9.51985
▁Af	-9.52017
▁Field	-9.52247
▁bean	-9.52258
binding	-9.52308
▁ByteArray	-9.52378
▁app	-9.52378
!=	-9.52382
▁className	-9.52402
apply	-9.525
amazonaws	-9.52628
le	-9.52717
Results	-9.52833
+"	-9.5287
UUID	-9.52913
up	-9.52921
empty	-9.5298
left	-9.53154
▁doc	-9.5319
Listeners	-9.53406
arraycopy	-9.53522
Step	-9.53557
Details	-9.53713
▁Vector	-9.53802
▁expression	-9.53811
Condition	-9.53894
TIME	-9.53931
call	-9.53944
▁here	-9.53955
\"	-9.54038
failed	-9.54315
Network	-9.54334
Left	-9.54394
TO	-9.54549
Cell	-9.54592
Matcher	-9.54669
▁timeout	-9.54733
featureID	-9.54795
:"	-9.5483
▁methodName	-9.549
Add	-9.54986
Select	-9.54986
▁used	-9.54991
Namespace	-9.55169
▁reference	-9.5525
Flow	-9.55274
After	-9.55753
▁elements	-9.55772
▁just	-9.55795
toLowerCase	-9.55986
component	-9.56019
▁schema	-9.56172
prefix	-9.56179
▁0.0	-9.56218
▁dir	-9.56349
▁operation	-9.56358
▁K	-9.56571
sort	-9.56587
el	-9.56739
op	-9.56843
Window	-9.56875
▁idx	-9.56933
parseInt	-9.56999
_0	-9.57027
Symbol	-9.57035
endsWith	-9.57132
local	-9.57199
▁into	-9.57306
▁cluster	-9.57412
container	-9.57469
▁URI	-9.57535
asList	-9.57537
getSimpleName	-9.57627
)));	-9.57632
VERSION	-9.57809
▁tree	-9.58024
iv	-9.58051
Sql	-9.58292
Encoding	-9.58364
Desc	-9.58535
▁cause	-9.58558
Word	-9.58585
link	-9.58662
▁test	-9.5882
▁project	-9.58856
▁"/"	-9.58904
▁application	-9.58916
SdkInternal	-9.58975
][	-9.58996
0,	-9.59184
://	-9.59469
▁Function	-9.59725
▁fileName	-9.5998
height	-9.59993
Post	-9.60184
--;	-9.60253
Distance	-9.6032
TAG	-9.6033
Loader	-9.60404
▁because	-9.60427
▁u	-9.60457
policy	-9.60533
limit	-9.60551
▁location	-9.60615
ms	-9.60741
▁serviceName	-9.60882
▁Resource	-9.60946
Holder	-9.61016
getField	-9.61154
dir	-9.61229
Region	-9.61264
tree	-9.61293
qPath	-9.6133
Failure	-9.61492
io	-9.61503
Groups	-9.61652
▁Throwable	-9.61714
isAssignableFrom	-9.61819
▁more	-9.61889
Missing	-9.62069
20	-9.62074
▁body	-9.62083
▁level	-9.62412
Abstract	-9.62419
▁pre	-9.62456
▁split	-9.62457
STRING	-9.6255
Blocking	-9.62595
Menu	-9.62665
▁statement	-9.62741
JSON	-9.62835
Op	-9.62948
Metric	-9.62975
PROPERTY	-9.63029
▁matcher	-9.6304
Permission	-9.63185
▁F	-9.63223
ALL	-9.63227
net	-9.63433
▁Page	-9.63558
Memory	-9.63588
▁skip	-9.63595
▁parser	-9.63667
av	-9.63755
▁ele	-9.63758
nitro	-9.63763
NLS	-9.63787
▁previous	-9.63905
Ifc	-9.63924
▁print	-9.63959
right	-9.6405
th	-9.64084
Controller	-9.64097
▁style	-9.64261
Pre	-9.64276
Arg	-9.64287
$	-9.64548
▁range	-9.6457
SET	-9.64742
▁password	-9.6476
▁M	-9.64766
▁link	-9.64918
▁compute	-9.65175
Items	-9.65205
▁open	-9.65236
▁Query	-9.65338
Snapshot	-9.65354
Case	-9.65414
▁remote	-9.65589
▁existing	-9.65595
Space	-9.65606
NotFound	-9.65648
Selector	-9.65681
16	-9.65722
Term	-9.65767
▁each	-9.65894
handle	-9.65913
▁change	-9.66014
▁collection	-9.66201
MetaData	-9.66268
Load	-9.66485
Protocol	-9.6659
▁report	-9.66666
the	-9.66735
▁prev	-9.66749
Serializer	-9.66862
▁NoSuch	-9.66895
us	-9.66981
Algorithm	-9.67259
▁trace	-9.67327
Security	-9.67358
(1)	-9.67402
▁Default	-9.67439
Only	-9.67847
getE	-9.67931
requireNonNull	-9.68074
▁transaction	-9.68352
▁second	-9.68354
run	-9.68489
Html	-9.68498
▁select	-9.68546
return	-9.68616
▁frame	-9.68643
Close	-9.68832
Attr	-9.6902
▁extract	-9.69052
Predicate	-9.69183
(0)	-9.69245
▁rs	-9.69293
IS	-9.69448
Vertex	-9.69526
Web	-9.69648
Could	-9.69713
Non	-9.69737
cms	-9.69829
▁insert	-9.69921
Required	-9.70108
▁description	-9.70289
▁apply	-9.70291
Operator	-9.7035
PREFIX	-9.7036
}	-9.70365
CLASS	-9.70452
Scale	-9.70476
▁segment	-9.70566
Binding	-9.70568
point	-9.70635
▁metadata	-9.70669
ad	-9.70679
options	-9.70692
Import	-9.70785
getMax	-9.70842
Usage	-9.71123
Validation	-9.7122
▁//$	-9.71246
Tokens	-9.71254
▁ID	-9.7126
▁back	-9.71305
Timestamp	-9.71339
attr	-9.71436
▁W	-9.71555
▁begin	-9.71581
configuration	-9.71599
▁mapping	-9.71659
Before	-9.71675
sb	-9.71716
Remote	-9.71738
im	-9.71811
<?>>	-9.71817
params	-9.71835
▁Message	-9.71984
POST	-9.72075
Constant	-9.72112
attribute	-9.72134
▁short	-9.72159
transform	-9.72174
▁save	-9.72204
FIELD	-9.72378
Columns	-9.72422
DATA	-9.72618
Db	-9.7268
▁stack	-9.72729
encode	-9.72874
getBytes	-9.72922
▁encoding	-9.72934
className	-9.7317
▁Base	-9.73373
Storage	-9.73411
▁work	-9.73411
One	-9.73529
writer	-9.73545
ap	-9.73598
and	-9.7362
req	-9.73765
Expr	-9.73771
Custom	-9.73772
Comment	-9.73786
▁database	-9.73838
order	-9.73915
Metrics	-9.73916
▁attr	-9.7393
generate	-9.74248
col	-9.74256
copy	-9.74314
18	-9.74357
▁Json	-9.74403
Q	-9.74453
▁transform	-9.74458
▁loop	-9.74487
forEach	-9.74716
▁entries	-9.75049
Category	-9.75067
▁names	-9.75113
Work	-9.75166
Icon	-9.7529
FileName	-9.7535
▁push	-9.75371
OF	-9.75382
▁8	-9.75456
for	-9.75748
▁module	-9.75762
FOLLOW	-9.76018
Right	-9.76025
START	-9.76048
single	-9.76057
Flag	-9.76228
address	-9.7634
▁extension	-9.76512
▁cl	-9.76542
getCurrent	-9.76605
▁scale	-9.76629
▁Request	-9.76727
▁using	-9.76736
Domain	-9.76776
setProperty	-9.76809
Changed	-9.76842
DateTime	-9.76895
▁access	-9.76951
▁merge	-9.77015
▁arguments	-9.77048
Constructor	-9.7712
▁post	-9.77154
port	-9.77164
▁types	-9.77215
compareTo	-9.77232
▁feature	-9.77233
namespace	-9.77279
Identity	-9.7737
Kind	-9.77424
▁DEFAULT	-9.77468
Product	-9.77652
▁distance	-9.77859
[]{	-9.77938
▁Calendar	-9.77997
▁replace	-9.77998
ment	-9.78082
API	-9.78104
Bits	-9.78105
>>>	-9.78148
Test	-9.78195
Methods	-9.78241
getTime	-9.78242
▁Stream	-9.78284
':	-9.78359
▁http	-9.78407
▁headers	-9.78474
▁stmt	-9.78504
convert	-9.78646
Tuple	-9.78676
▁mode	-9.78724
Capacity	-9.78745
box	-9.7879
-1$	-9.78836
Subscription	-9.78931
am	-9.79015
select	-9.79063
▁reset	-9.79094
os	-9.7911
Col	-9.79165
main	-9.79191
▁initialize	-9.79198
ec	-9.79365
Box	-9.79511
Atom	-9.79553
Topic	-9.79562
PATH	-9.79569
▁alt	-9.79706
▁counter	-9.79738
▁ByteBuffer	-9.79739
Score	-9.79798
bean	-9.79856
▁HttpServlet	-9.80181
▁items	-9.80186
Empty	-9.80198
accept	-9.80461
Global	-9.80523
▁Preconditions	-9.8056
▁["	-9.80711
▁actual	-9.80881
▁available	-9.81001
▁Add	-9.81002
getAbsolutePath	-9.81151
Formatter	-9.8118
Profile	-9.81206
Selection	-9.81278
▁cmd	-9.81307
▁constructor	-9.81407
▁de	-9.81546
▁prop	-9.81649
▁Http	-9.81704
▁top	-9.8173
Tile	-9.8179
use	-9.81806
Information	-9.82026
ByteBuffer	-9.82057
Co	-9.82194
▁columns	-9.82218
▁clear	-9.82283
active	-9.82329
▁No	-9.82609
▁sure	-9.82958
Layer	-9.83019
▁formatter	-9.83038
Relation	-9.83066
Partition	-9.83072
OK	-9.83157
▁random	-9.8317
▁JSONObject	-9.83176
MIN	-9.83197
DATE	-9.83217
est	-9.83238
Area	-9.83245
Open	-9.83245
Run	-9.83349
UN	-9.83389
form	-9.83401
collect	-9.83426
▁show	-9.83431
project	-9.83436
Interrupted	-9.8351
TABLE	-9.8367
▁exist	-9.837
[])	-9.8378
▁raw	-9.83846
▁include	-9.83861
reference	-9.83915
▁conf	-9.8396
Bucket	-9.83997
Float	-9.84044
Min	-9.84268
Authentication	-9.84269
OR	-9.84282
stop	-9.84334
▁off	-9.84382
Multi	-9.8443
getData	-9.84495
ff	-9.84506
match	-9.84552
Transport	-9.84563
▁step	-9.84632
▁Iterable	-9.84701
Fragment	-9.84706
Declaration	-9.84873
iter	-9.85011
This	-9.85056
▁invoke	-9.85058
▁2;	-9.85087
▁cms	-9.85139
▁unit	-9.85139
tr	-9.85223
▁>>	-9.85267
Arrays	-9.85296
Rules	-9.85302
Ex	-9.85305
ol	-9.85382
ToString	-9.85476
USER	-9.85513
Build	-9.85565
de	-9.85565
History	-9.8577
Transform	-9.85818
application	-9.85996
listener	-9.86014
▁ns	-9.86039
▁atom	-9.86053
Socket	-9.86456
▁children	-9.86498
Recognition	-9.86539
INT	-9.86547
▁append	-9.86559
number	-9.86606
Principal	-9.86791
▁st	-9.86821
commerce	-9.86903
replaceAll	-9.86914
eNS	-9.86917
▁Properties	-9.86926
▁mapper	-9.87103
app	-9.8712
Up	-9.87204
}/	-9.87218
flush	-9.87241
▁nodes	-9.87249
fs	-9.87281
▁Invalid	-9.87303
getDefault	-9.87337
Sync	-9.87487
EPackage	-9.87634
▁chain	-9.87635
▁html	-9.87638
▁payload	-9.87718
Duration	-9.87784
▁XML	-9.8779
▁namespace	-9.88063
LENGTH	-9.88091
cs	-9.88175
getX	-9.88179
▁Simple	-9.88264
----------------	-9.88267
▁could	-9.88393
▁since	-9.88437
Site	-9.88441
Signature	-9.88526
])	-9.88558
Widget	-9.8866
Factor	-9.88682
Delegate	-9.88719
Stop	-9.88876
Plugin	-9.88903
report	-9.88911
▁retval	-9.88917
Specification	-9.89016
▁StringUtils	-9.89031
TOKEN	-9.89035
▁Character	-9.89153
join	-9.89162
level	-9.89207
li	-9.8924
ate	-9.89392
insert	-9.89527
▁allow	-9.89527
Props	-9.89619
Variables	-9.89658
conf	-9.89659
Route	-9.89672
unlock	-9.89826
doc	-9.89854
Found	-9.89969
annotation	-9.90066
▁main	-9.90082
Credentials	-9.90109
▁my	-9.90164
Unknown	-9.903
Direction	-9.90316
▁U	-9.9037
▁system	-9.90371
▁cur	-9.90376
▁TimeUnit	-9.90382
pattern	-9.90518
▁ensure	-9.90542
xFF	-9.90578
send	-9.90584
Period	-9.90774
throw	-9.90874
getEPackage	-9.90917
store	-9.90942
Deprecated	-9.90949
Return	-9.90982
word	-9.91099
De	-9.91109
▁where	-9.91149
Support	-9.91161
document	-9.91173
▁done	-9.91251
Section	-9.91273
▁encode	-9.91296
▁chunk	-9.91351
9	-9.91368
Res	-9.91619
▁CmsResource	-9.9171
▁script	-9.91816
▁DateTime	-9.91832
▁sort	-9.91842
validator	-9.91852
ctx	-9.91863
▁active	-9.91891
Classifiers	-9.91993
Day	-9.92344
Screen	-9.92577
▁NullPointer	-9.92624
▁Annotation	-9.92703
▁Repository	-9.92765
SQLException	-9.92806
▁Value	-9.9285
▁methods	-9.92884
▁device	-9.92985
▁member	-9.92999
Rate	-9.93021
newBuilder	-9.93048
▁1.0	-9.93079
Shape	-9.93082
reset	-9.93174
getAnnotation	-9.93183
search	-9.93196
END	-9.93251
Geometry	-9.93315
▁condition	-9.93344
getResource	-9.93515
EMPTY	-9.93541
NULL	-9.93546
te	-9.93587
sTo	-9.93707
ac	-9.9373
▁word	-9.93867
ResponseBody	-9.94011
var	-9.94042
▁Locale	-9.94057
▁variable	-9.94103
▁tokens	-9.94228
01	-9.94272
Buf	-9.94411
Remove	-9.94709
▁compare	-9.94712
▁pool	-9.94717
hash	-9.94721
▁op	-9.94764
HttpRequest	-9.94796
▁Content	-9.94828
▁Image	-9.94839
Simple	-9.94873
Conf	-9.94894
Join	-9.94902
Validator	-9.94911
-1	-9.94927
▁groupId	-9.94974
▁render	-9.95029
IO	-9.95208
getRequest	-9.95218
ON	-9.9523
▁env	-9.95255
LOGGER	-9.95259
nextPageLink	-9.95259
▁proxy	-9.95376
Core	-9.95377
td	-9.95522
Short	-9.95628
parameter	-9.95681
Transition	-9.95844
▁specified	-9.95871
reader	-9.95884
13	-9.9589
Title	-9.95902
schema	-9.95947
Annotations	-9.96029
tmp	-9.96113
location	-9.96157
CODE	-9.96168
▁partition	-9.96168
Trigger	-9.96216
▁loader	-9.9644
Chunk	-9.96549
Be	-9.96564
Detail	-9.96583
abs	-9.96622
▁part	-9.96703
("/	-9.96744
setValue	-9.96807
▁dst	-9.96859
ant	-9.96917
command	-9.96981
▁OutputStream	-9.97097
▁Property	-9.97105
▁BigDecimal	-9.97238
Cursor	-9.97263
locale	-9.97272
Binary	-9.97337
ce	-9.97367
▁best	-9.97395
Prop	-9.97411
▁color	-9.97551
Sort	-9.97557
Media	-9.97581
COLUMN	-9.97606
PARAM	-9.97607
LIST	-9.97608
▁batch	-9.97696
resolve	-9.97794
▁descriptor	-9.97824
off	-9.97849
▁cursor	-9.97857
types	-9.97902
Alias	-9.97928
ts	-9.98017
▁arr	-9.98173
Registration	-9.98243
22	-9.98295
▁Token	-9.98445
head	-9.9847
ul	-9.98612
Archive	-9.9864
▁Document	-9.98671
▁3	-9.98716
▁tile	-9.9888
▁sequence	-9.98943
▁Expression	-9.98954
ids	-9.98972
lastIndexOf	-9.98993
title	-9.99132
▁exec	-9.99149
con	-9.99177
▁self	-9.99204
▁fieldName	-9.99212
Driver	-9.9925
ive	-9.99256
Iter	-9.99312
getText	-9.99449
▁Connection	-9.99496
cp	-9.99548
▁newValue	-9.9963
#	-9.99663
Attachment	-9.99732
▁plugin	-9.99748
▁Update	-9.9975
▁exists	-9.99802
expression	-9.99871
Points	-10.0004
cluster	-10.0009
▁Constants	-10.0014
DataSource	-10.0018
Progress	-10.0018
rule	-10.0027
▁sum	-10.0029
REQUEST	-10.004
▁JAXBElement	-10.004
Runtime	-10.0042
getNext	-10.0043
Payload	-10.0045
▁con	-10.0049
▁decode	-10.0051
▁Job	-10.0057
▁Interrupted	-10.0076
▁ClassLoader	-10.0088
▁auth	-10.0088
scope	-10.0096
HTTP	-10.0097
cl	-10.0104
Millis	-10.0107
▁Number	-10.0108
Instances	-10.0124
▁created	-10.015
▁supported	-10.0151
▁title	-10.0157
▁classes	-10.0157
▁selected	-10.0162
AL	-10.0166
▁meta	-10.0171
MESSAGE	-10.0173
[][]	-10.0179
SI	-10.0179
INFO	-10.0192
post	-10.0193
▁fs	-10.0196
Dependency	-10.0203
Language	-10.0213
ns	-10.0226
▁?>	-10.0246
Authorization	-10.0255
▁registry	-10.0256
Children	-10.0258
▁charset	-10.0259
Display	-10.0265
Processing	-10.0268
▁Matrix	-10.0278
uuid	-10.0283
▁cell	-10.0287
()];	-10.0294
Arguments	-10.031
▁>>>	-10.0315
decode	-10.0316
▁LinkedList	-10.0327
Sign	-10.0336
setAttribute	-10.0348
Con	-10.0355
//	-10.0363
xff	-10.0377
▁var	-10.0384
Worker	-10.0401
▁our	-10.0402
});	-10.0403
unit	-10.0409
not	-10.0418
▁full	-10.0422
forName	-10.0424
Plan	-10.043
make	-10.0433
EL	-10.0437
Split	-10.0437
NODE	-10.0437
Static	-10.0442
member	-10.0458
▁storage	-10.0467
ity	-10.0468
▁'\	-10.0473
ve	-10.0474
▁Config	-10.0477
timeout	-10.048
Monitor	-10.048
▁Data	-10.0482
getParameter	-10.0502
▁cached	-10.053
password	-10.0548
ro	-10.0548
Pipeline	-10.055
▁Assert	-10.0552
▁over	-10.0555
Invocation	-10.0555
▁"\"	-10.0562
▁folder	-10.0562
▁tx	-10.0564
intValue	-10.0575
▁filename	-10.058
getWidth	-10.0581
▁join	-10.0582
Constraint	-10.0583
▁MAX	-10.0584
[]>	-10.0592
Collector	-10.0603
MAP	-10.0606
Events	-10.0606
▁executor	-10.0609
Agent	-10.0611
Criteria	-10.0619
READ	-10.062
▁Entity	-10.0629
Init	-10.0646
Edit	-10.0648
handler	-10.065
rows	-10.0652
▁some	-10.0657
External	-10.0664
Iterable	-10.0665
▁os	-10.0666
▁added	-10.0667
jcasType	-10.0672
▁initial	-10.0683
IF	-10.0684
getY	-10.0689
▁View	-10.0694
Editor	-10.0701
Background	-10.071
Sample	-10.0715
script	-10.0719
operation	-10.0724
▁given	-10.0725
14	-10.0731
▁visit	-10.0732
Parts	-10.0741
NONE	-10.075
▁convertTo	-10.0764
▁interval	-10.0766
Valid	-10.0767
ELEMENT	-10.0774
getMethod	-10.0785
Single	-10.0793
FilePath	-10.08
▁single	-10.0801
▁internal	-10.0805
queue	-10.0816
▁consumer	-10.0819
fill	-10.0826
▁possible	-10.0827
Servlet	-10.0828
▁tags	-10.0829
EN	-10.0841
▁bit	-10.0844
▁rows	-10.085
Cert	-10.0851
IP	-10.0854
dest	-10.0861
▁listeners	-10.0863
Available	-10.0869
Cookie	-10.0874
ompletableFuture	-10.0876
ag	-10.0885
one	-10.0886
CACHE	-10.0889
▁want	-10.0891
▁calculate	-10.0893
Span	-10.0897
▁Java	-10.0899
clone	-10.09
serviceName	-10.0903
em	-10.0906
Artifact	-10.0907
>>()	-10.0919
Visible	-10.0929
Bit	-10.0931
▁Server	-10.0932
Paths	-10.0934
Can	-10.0953
▁Pattern	-10.0953
StringUtil	-10.0956
scale	-10.0958
me	-10.0958
],	-10.0962
的	-10.0967
getNode	-10.0969
▁Operation	-10.098
Statistics	-10.0981
▁Attribute	-10.0981
▁Configuration	-10.0991
um	-10.0994
getInt	-10.0996
RequestContext	-10.1005
setName	-10.1023
▁its	-10.1026
parser	-10.1026
Describe	-10.1039
▁iv	-10.1046
compare	-10.1052
Common	-10.1057
Grid	-10.1062
▁cls	-10.1069
▁delta	-10.1075
▁Task	-10.1083
HEADER	-10.1084
short	-10.1098
Weight	-10.1102
resp	-10.1112
Structure	-10.1123
Flags	-10.113
html	-10.114
▁control	-10.1148
Zone	-10.115
Per	-10.1154
pe	-10.1155
sFor	-10.1155
Trace	-10.1156
getContext	-10.1161
Packet	-10.1163
--	-10.1168
ret	-10.117
HttpServlet	-10.1171
super	-10.1174
▁...	-10.1176
mode	-10.1179
ies	-10.118
▁cal	-10.1181
▁tr	-10.1193
▁form	-10.1193
DAY	-10.1193
Mask	-10.1206
▁[{}]	-10.1222
▁topic	-10.1231
ps	-10.1236
Follow	-10.1242
Deployment	-10.1242
Use	-10.1246
▁Key	-10.1259
temp	-10.1277
pre	-10.128
▁graph	-10.1281
Tab	-10.1291
▁verify	-10.1295
▁window	-10.1301
▁character	-10.1301
▁endpoint	-10.1304
axis	-10.1312
getUser	-10.1316
21	-10.1324
Master	-10.1324
▁multi	-10.133
Upload	-10.1336
▁happen	-10.1356
▁Context	-10.1365
▁Table	-10.1375
currentThread	-10.1376
|	-10.1384
subscriptionId	-10.1387
<?,	-10.139
gen	-10.1394
sum	-10.1398
▁"\	-10.1399
▁Matcher	-10.1418
template	-10.1421
▁Re	-10.1422
atom	-10.143
segment	-10.1431
▁User	-10.1432
Owner	-10.1433
GROUP	-10.1434
Stage	-10.1444
▁edge	-10.1457
mi	-10.1458
Separator	-10.1465
▁domain	-10.1475
▁through	-10.1482
ROOT	-10.1485
Assignment	-10.1485
Slot	-10.1489
ize	-10.1495
getLength	-10.151
raw	-10.1516
MODE	-10.1516
▁contains	-10.1529
Pass	-10.1533
MS	-10.1534
ws	-10.1539
Schedule	-10.154
toUpperCase	-10.1567
▁trigger	-10.1574
Diff	-10.1574
▁2);	-10.1584
isDirectory	-10.1585
DataType	-10.1586
EventListener	-10.1587
il	-10.1608
Expected	-10.1609
Setting	-10.1612
▁ps	-10.1615
Comparator	-10.1623
Native	-10.1625
Complete	-10.1628
describe	-10.1629
begin	-10.1639
▁two	-10.164
total	-10.164
getAll	-10.1641
global	-10.1641
▁Internal	-10.1652
EDEFAULT	-10.1663
condition	-10.1668
cause	-10.1678
test	-10.168
separator	-10.1683
function	-10.1683
rec	-10.1683
▁package	-10.1685
RESOURCE	-10.1686
cm	-10.1688
▁Runnable	-10.1692
▁propertyName	-10.1695
='	-10.1699
ay	-10.1703
cur	-10.1713
complete	-10.1714
▁changed	-10.1715
Renderer	-10.1718
style	-10.1729
▁nextPageLink	-10.1729
metadata	-10.1731
509	-10.1736
|=	-10.1739
▁duration	-10.1741
Association	-10.1752
▁fire	-10.1753
▁parts	-10.1764
▁checkNotNull	-10.1766
Axis	-10.1776
▁notify	-10.1776
Raw	-10.1777
▁wait	-10.1778
getObject	-10.1781
getNum	-10.1784
meta	-10.1797
Export	-10.1801
push	-10.1803
include	-10.1811
env	-10.1812
Seq	-10.1814
▁10	-10.1815
Backup	-10.1817
▁cp	-10.1824
▁comment	-10.1827
Expressions	-10.183
POS	-10.1835
LE	-10.1837
getCause	-10.1839
▁dependency	-10.1852
ers	-10.1852
Interceptor	-10.1854
▁Float	-10.1856
destination	-10.1857
STATE	-10.1859
OBJECT	-10.186
merge	-10.1866
▁Ovh	-10.1869
Bind	-10.1873
getStatus	-10.1878
▁1000	-10.1881
getHeight	-10.1883
Escape	-10.1889
Initial	-10.1901
Rows	-10.1904
▁uuid	-10.1913
Transformer	-10.1915
▁pass	-10.1917
range	-10.1921
▁Array	-10.193
apache	-10.1945
▁socket	-10.1951
ARN	-10.1953
Intent	-10.1955
cas	-10.196
▁move	-10.1967
Full	-10.1973
▁support	-10.198
▁"."	-10.1983
ibm	-10.1988
▁scan	-10.2
ight	-10.2003
▁flags	-10.2006
Scan	-10.2007
Created	-10.2009
Safe	-10.201
▁points	-10.201
Proto	-10.2024
Tasks	-10.2033
Present	-10.2041
1;	-10.2043
Login	-10.2047
("%	-10.2063
Top	-10.2065
parameters	-10.2067
▁resolved	-10.2071
COUNT	-10.2073
▁real	-10.2073
Gen	-10.2074
manager	-10.2079
Objects	-10.2082
Has	-10.2094
▁environment	-10.2094
▁bucket	-10.2098
getContent	-10.2101
▁Util	-10.2108
Allowed	-10.2114
▁lo	-10.2115
METHOD	-10.2118
MONTH	-10.2118
Chars	-10.2121
SinglePage	-10.2121
Features	-10.2122
▁extra	-10.2123
children	-10.2123
▁lookup	-10.2124
ls	-10.2125
▁comp	-10.2129
TEXT	-10.213
compiler	-10.2131
▁bind	-10.2137
ENTITY	-10.2145
"),	-10.2146
▁/**	-10.2149
alt	-10.2152
Collectors	-10.2154
▁fetch	-10.2159
EVENT	-10.2161
Back	-10.2165
▁Pair	-10.2173
[3]	-10.2178
▁sign	-10.2178
▁commit	-10.2185
▁Color	-10.2185
Auto	-10.2188
Exists	-10.2201
visit	-10.2205
Marker	-10.2207
TypeName	-10.2208
Random	-10.2209
▁role	-10.2212
▁transport	-10.2213
Envelope	-10.222
Direct	-10.2226
SC	-10.2228
getSource	-10.2236
Year	-10.2238
▁Describe	-10.2252
comp	-10.226
keys	-10.226
};	-10.2272
▁execution	-10.2274
Boundary	-10.2283
▁repository	-10.2284
▁them	-10.2291
▁ioe	-10.2291
NaN	-10.2294
▁cancel	-10.2298
▁tableName	-10.23
description	-10.2305
▁getAll	-10.2313
▁desc	-10.233
▁BufferedReader	-10.2358
▁ds	-10.2366
ra	-10.2366
2;	-10.2369
Hex	-10.2371
▁fail	-10.2378
15	-10.2383
▁Validate	-10.2386
extension	-10.2399
apiVersion	-10.2402
▁Component	-10.2404
Literal	-10.242
▁solution	-10.2433
pt	-10.2436
▁owner	-10.2439
▁term	-10.2441
("\\	-10.2443
pair	-10.2444
Put	-10.2445
color	-10.2447
Utility	-10.2448
extract	-10.2449
Codec	-10.245
Merge	-10.2459
ping	-10.2463
▁manager	-10.2468
Management	-10.2469
▁zero	-10.2472
▁tuple	-10.2474
▁calendar	-10.2474
▁indent	-10.2475
▁expr	-10.2477
▁perform	-10.2481
▁year	-10.2482
▁called	-10.249
Uuid	-10.2492
▁retry	-10.2492
Accessor	-10.2495
prev	-10.2496
▁featureID	-10.2497
▁def	-10.2507
▁matches	-10.2515
ARRAY	-10.2518
Delta	-10.2518
INDEX	-10.2518
partition	-10.2521
▁mask	-10.2524
▁lines	-10.2524
sh	-10.2527
Any	-10.2528
▁FileInputStream	-10.2545
Ops	-10.2552
▁escape	-10.2554
▁prepare	-10.2559
▁timestamp	-10.256
▁bits	-10.2562
Insert	-10.2578
wrap	-10.2579
domain	-10.258
▁Tuple	-10.2584
▁protocol	-10.2587
Secret	-10.2595
BASE	-10.2603
▁accept	-10.2609
Animation	-10.2609
FileOutputStream	-10.263
tokens	-10.2635
ting	-10.2641
attributes	-10.2644
setText	-10.2644
▁removed	-10.2648
')	-10.2649
(1,	-10.265
Home	-10.2655
DEBUG	-10.2655
▁display	-10.2657
Begin	-10.2669
▁matrix	-10.2669
▁addBody	-10.267
/"	-10.2672
▁signature	-10.2675
3,	-10.2676
▁running	-10.2678
auth	-10.2688
▁complete	-10.2694
Connector	-10.27
getBundle	-10.2706
▁diff	-10.2707
▁Session	-10.2709
▁see	-10.2723
fields	-10.2724
▁messages	-10.2726
Register	-10.2728
▁attempt	-10.273
▁doesn	-10.273
Cause	-10.2731
Wait	-10.2733
▁needed	-10.2734
Commit	-10.2737
▁identifier	-10.2742
Timer	-10.2744
▁Screen	-10.2747
CONTENT	-10.2747
▁errors	-10.275
Ext	-10.2755
[0]);	-10.2763
ifc	-10.2764
(0).	-10.2769
▁head	-10.2772
Services	-10.2774
Delay	-10.2793
Loop	-10.2794
▁"'"	-10.2798
mp	-10.2805
▁layer	-10.281
▁EClass	-10.2814
▁activity	-10.2819
▁fill	-10.283
ATTRIBUTE	-10.2831
copyOf	-10.2832
Ok	-10.2835
per	-10.2842
by	-10.2843
Finder	-10.2852
getEntity	-10.2854
reparedStatement	-10.2856
Clause	-10.2863
readLine	-10.2865
▁settings	-10.2869
CA	-10.2872
Arn	-10.2886
Rect	-10.289
device	-10.2891
save	-10.2907
round	-10.2907
ized	-10.2916
▁SQL	-10.2916
▁custom	-10.2917
0)	-10.2928
ok	-10.2931
Depth	-10.2935
Reply	-10.2935
Disk	-10.2938
▁Cache	-10.2949
ta	-10.2956
bundle	-10.2963
Success	-10.2965
Border	-10.2966
==0	-10.2971
Closed	-10.2973
▁never	-10.2984
CP	-10.2984
ME	-10.2989
bind	-10.2992
▁Result	-10.2993
Subject	-10.3015
getTarget	-10.3018
▁ip	-10.3029
Move	-10.303
LINE	-10.3031
▁updated	-10.3037
ACTION	-10.3039
ServiceCallback	-10.3044
PI	-10.3048
et	-10.3053
▁present	-10.3053
▁configure	-10.3071
DELETE	-10.3071
Drawable	-10.3074
▁ApiException	-10.3078
Retry	-10.3079
▁avoid	-10.308
newValue	-10.3081
▁predicate	-10.3087
▁profile	-10.3091
Rel	-10.3094
Issue	-10.3104
Visitor	-10.3111
▁retrieve	-10.3115
just	-10.312
▁artifact	-10.3121
30	-10.3122
▁separator	-10.3122
Total	-10.3124
prop	-10.3128
Font	-10.3133
▁chars	-10.3135
counter	-10.3139
▁algorithm	-10.3144
Sum	-10.3149
▁classLoader	-10.3152
▁ClassNotFound	-10.3162
=\"	-10.3163
Supplier	-10.3164
callback	-10.3164
<?>)	-10.3169
▁clean	-10.3181
23	-10.3185
▁Logger	-10.3191
fileName	-10.3191
co	-10.3196
getFirst	-10.3199
▁always	-10.3199
Managed	-10.3206
enable	-10.3206
Save	-10.321
▁"]"	-10.3216
SEPARATOR	-10.3222
lat	-10.3228
▁Xml	-10.3228
▁OpenCms	-10.3262
mo	-10.3263
▁elem	-10.3263
module	-10.3264
AS	-10.3268
▁jcasType	-10.3268
Primitive	-10.327
Sheet	-10.3271
WIDTH	-10.3271
▁JsonObject	-10.3275
FINE	-10.3275
USE	-10.3275
▁err	-10.3277
000	-10.3288
PER	-10.3292
Parse	-10.3294
▁interface	-10.3295
act	-10.3299
Graphics	-10.3301
UI	-10.3304
▁timer	-10.3308
▁Notification	-10.3309
Replace	-10.3322
▁inputStream	-10.3331
ie	-10.3332
getApplication	-10.3339
Permissions	-10.334
getElement	-10.335
Generic	-10.3356
▁center	-10.3358
original	-10.3367
isValid	-10.3374
▁cs	-10.3374
Seconds	-10.3384
▁Client	-10.3384
Errors	-10.3385
▁registered	-10.3393
▁defined	-10.3396
▁space	-10.3396
▁Messages	-10.34
▁alias	-10.3404
▁controller	-10.3408
ParseException	-10.341
▁delegate	-10.3412
NoSuch	-10.3413
▁converter	-10.3414
Click	-10.3416
STATUS	-10.3416
my	-10.3419
isLoggable	-10.3419
▁zone	-10.3424
NS	-10.3433
▁pending	-10.3435
▁State	-10.3438
▁Text	-10.3445
core	-10.345
Rest	-10.3452
Zero	-10.3468
idBagConstraints	-10.3469
casFeat	-10.3469
isTraceOn	-10.3469
isPresent	-10.3471
▁additional	-10.3472
FieldName	-10.3476
toByteArray	-10.3479
getRecord	-10.3479
▁jar	-10.3483
▁export	-10.3489
commit	-10.3489
▁auto	-10.3512
Digest	-10.3512
▁curr	-10.3515
Head	-10.3522
▁vertex	-10.3522
def	-10.3534
Scroll	-10.3534
Extensions	-10.3536
flow	-10.3538
ui	-10.354
▁vector	-10.3543
▁setup	-10.3543
▁API	-10.3552
Email	-10.3553
fine	-10.3557
▁opt	-10.3564
warning	-10.3566
Elem	-10.3566
EntityManager	-10.3568
TRUE	-10.3569
PATTERN	-10.3569
Render	-10.3591
▁co	-10.3591
Connect	-10.3596
▁invalid	-10.3597
▁Database	-10.3599
▁username	-10.36
Ip	-10.3602
▁BigInteger	-10.3607
▁5	-10.3618
se	-10.3619
▁qPath	-10.3622
Without	-10.3626
▁Future	-10.364
AsString	-10.3647
ess	-10.3648
▁got	-10.3648
Accept	-10.3654
ri	-10.3656
ho	-10.3658
▁Service	-10.3662
▁nothing	-10.367
▁StringBundler	-10.367
▁Web	-10.3671
31	-10.3672
Card	-10.3674
▁structure	-10.3675
random	-10.3676
▁recover	-10.3679
▁route	-10.3681
▁allowed	-10.3684
can	-10.3685
role	-10.3688
Stat	-10.369
▁policy	-10.3694
▁'%	-10.3698
"+	-10.3699
ISO	-10.3702
▁region	-10.3709
▁determine	-10.3713
Lookup	-10.3721
▁relation	-10.3722
ify	-10.3726
▁archive	-10.3727
release	-10.373
Basic	-10.373
FORMAT	-10.3734
getEnd	-10.3736
CE	-10.3747
▁criteria	-10.3758
▁bounds	-10.3763
▁missing	-10.3769
Tick	-10.3772
TypeReference	-10.3794
AN	-10.3799
(-1	-10.3802
ter	-10.3812
AT	-10.3816
ByteArray	-10.3822
Delivery	-10.3825
▁product	-10.3833
elements	-10.3834
Writable	-10.3835
50	-10.3836
provider	-10.3836
Src	-10.3838
IC	-10.385
Blank	-10.3851
RA	-10.3857
▁Error	-10.387
▁Opcode	-10.3872
Admin	-10.3874
Dao	-10.3874
SESSION	-10.3876
CHAR	-10.3878
compile	-10.3879
ack	-10.3881
stack	-10.3884
getState	-10.3887
Infos	-10.3889
work	-10.3891
web	-10.3898
ErrorCode	-10.3909
▁CharSequence	-10.391
▁commerce	-10.3912
Commerce	-10.3916
▁getIfc	-10.3916
ads	-10.3917
▁suffix	-10.3924
Active	-10.3925
Filters	-10.3926
www	-10.3928
Dependencies	-10.3928
Definitions	-10.3931
Dispatcher	-10.3931
cast	-10.3938
ee	-10.3939
▁place	-10.394
cursor	-10.3942
emptyList	-10.3942
Equals	-10.3952
Polygon	-10.3952
Sorted	-10.3953
▁exp	-10.3957
It	-10.3962
PublicKey	-10.3968
▁describe	-10.3974
▁score	-10.3974
▁language	-10.3975
Virtual	-10.3978
toList	-10.3978
Analysis	-10.398
▁flow	-10.3981
found	-10.3996
show	-10.3999
ES	-10.4001
tp	-10.4012
▁did	-10.4015
concat	-10.4024
MASK	-10.4033
Execute	-10.4033
Env	-10.4037
▁connect	-10.4039
▁global	-10.4044
@	-10.4045
getS	-10.4045
rt	-10.4048
previous	-10.405
▁Objects	-10.4056
02	-10.4057
Dis	-10.4061
tx	-10.4062
processException	-10.4065
arr	-10.4072
OP	-10.4078
Priority	-10.4085
OutOfBounds	-10.4086
Redirect	-10.4089
▁pair	-10.4097
▁progress	-10.4101
where	-10.4106
endpoint	-10.4115
Comp	-10.4118
Attempt	-10.4128
conn	-10.4131
▁slot	-10.4131
▁In	-10.4134
▁3)	-10.4135
ary	-10.4135
pc	-10.4136
getClassLoader	-10.4137
Jar	-10.4138
Completion	-10.4138
WITH	-10.4139
▁without	-10.414
Facet	-10.4153
Publish	-10.4154
ten	-10.4159
▁site	-10.4161
frame	-10.4162
checkNotNull	-10.4163
▁resourceName	-10.4166
top	-10.4168
access	-10.4174
TargetException	-10.4176
Const	-10.4184
Print	-10.4186
▁release	-10.4186
Compare	-10.4191
SERVER	-10.4192
getTask	-10.4193
▁InternalXbase	-10.4193
▁validation	-10.4195
self	-10.421
▁ids	-10.4213
▁day	-10.4213
distance	-10.4216
▁shift	-10.4217
▁digest	-10.4218
RS	-10.4218
▁groups	-10.422
option	-10.422
▁Utils	-10.4222
▁"]	-10.4229
▁sp	-10.423
consume	-10.4247
Extractor	-10.4248
Persistence	-10.4252
▁simple	-10.4254
mark	-10.426
userAgent	-10.4265
doubleValue	-10.4265
collection	-10.4273
cell	-10.4285
Down	-10.4295
▁Build	-10.4299
square	-10.43
▁(@	-10.4323
isBlank	-10.4326
custom	-10.4327
▁16	-10.433
▁Filter	-10.4331
PARAMETER	-10.4345
▁\""	-10.4351
database	-10.4352
groupId	-10.4354
▁reading	-10.4354
Patch	-10.4354
RETURN	-10.4355
▁information	-10.4355
Tx	-10.4355
UPDATE	-10.4355
":	-10.4367
▁go	-10.4368
25	-10.4378
Encoder	-10.438
▁too	-10.438
Temp	-10.4381
▁closed	-10.4381
▁ParseException	-10.4382
▁authentication	-10.4394
()){	-10.4397
day	-10.4401
Main	-10.4404
▁import	-10.4404
Threshold	-10.4409
stats	-10.4423
▁Security	-10.4423
OS	-10.4425
▁round	-10.4425
--)	-10.4431
Bus	-10.4433
▁requested	-10.4434
batch	-10.4437
proxy	-10.4439
▁button	-10.4442
▁metric	-10.4447
▁\	-10.4447
getLong	-10.4449
▁nodeList	-10.4456
fieldName	-10.4464
iferay	-10.4464
Observer	-10.4464
WARNING	-10.4464
getComponent	-10.4466
▁web	-10.4467
Members	-10.4469
▁media	-10.4474
▁flag	-10.4477
fc	-10.448
props	-10.4484
Behavior	-10.4484
uc	-10.449
alias	-10.4496
getConnection	-10.4498
FieldType	-10.4501
▁lower	-10.4508
▁7	-10.4518
Runner	-10.4519
Center	-10.4523
▁Write	-10.4531
▁Application	-10.4548
▁encoded	-10.4552
Ad	-10.4553
cc	-10.4558
edge	-10.4565
Compound	-10.4569
Unique	-10.4569
▁remaining	-10.4573
▁8)	-10.4578
getProperties	-10.4578
cmd	-10.458
▁^	-10.4587
remote	-10.4588
19	-10.4593
ang	-10.4594
Standard	-10.4598
EEnum	-10.46
skip	-10.4612
processor	-10.4619
▁subject	-10.4624
SOURCE	-10.463
Solution	-10.463
▁would	-10.4631
FALSE	-10.4631
▁least	-10.4631
PAGE	-10.4633
metric	-10.4635
ByName	-10.4642
Labels	-10.4643
TimeZone	-10.4654
Asset	-10.4655
17	-10.4657
DE	-10.466
▁Int	-10.4667
INVALID	-10.4668
Do	-10.4671
=");	-10.4689
▁collect	-10.4691
▁another	-10.4694
bin	-10.4694
Shared	-10.4698
NumberFormat	-10.4709
▁wrap	-10.472
getLast	-10.4723
33	-10.4726
▁childNode	-10.4726
getInputStream	-10.4727
mapping	-10.473
over	-10.4735
▁serverName	-10.4739
ERR	-10.4739
Bar	-10.4742
FOUND	-10.4743
backtracking	-10.4744
LEFT	-10.4744
tion	-10.4744
▁processing	-10.4745
flatMap	-10.4751
}"	-10.4755
▁comparator	-10.4758
SSL	-10.4762
▁inner	-10.478
transaction	-10.4786
graph	-10.4788
Workspace	-10.4796
[0].	-10.4796
States	-10.481
Include	-10.4811
Modifier	-10.4813
▁NOT	-10.4817
po	-10.482
▁ResultSet	-10.4822
Lines	-10.4827
sResult	-10.4828
addr	-10.4829
expected	-10.4839
Cached	-10.4845
factory	-10.4846
▁enabled	-10.4847
propertyName	-10.4848
▁dialog	-10.4848
Roles	-10.485
ization	-10.4852
profile	-10.4853
▁msgs	-10.4853
opt	-10.4857
YEAR	-10.4858
ut	-10.4861
ab	-10.4869
▁api	-10.4874
▁candidate	-10.4875
▁variables	-10.4884
change	-10.4885
▁LA	-10.4888
system	-10.4891
▁definition	-10.4896
AND	-10.4896
▁flush	-10.4899
Fixed	-10.4908
▁Delete	-10.4912
▁proc	-10.4913
▁enable	-10.4913
APPLICATION	-10.4915
Bootstrap	-10.4915
Suffix	-10.4915
Indicator	-10.4915
▁yet	-10.4918
ResultSet	-10.492
▁deleted	-10.4928
nextToken	-10.4938
getIndex	-10.4942
la	-10.4944
256	-10.4944
real	-10.4944
lv	-10.495
▁Transaction	-10.496
step	-10.4963
else	-10.4964
CmsResource	-10.4966
Peer	-10.4973
part	-10.4979
▁Bean	-10.4984
▁orig	-10.4988
Conversion	-10.4993
ax	-10.4993
Receiver	-10.5003
<?>[]	-10.5004
▁direction	-10.5009
apiClient	-10.5012
OUT	-10.5022
year	-10.5023
lookup	-10.5023
impl	-10.5024
7:	-10.5028
SERVICE	-10.5031
Extended	-10.5034
100	-10.5037
cancel	-10.5041
▁BufferedImage	-10.5044
Zip	-10.5056
▁Index	-10.5056
>\	-10.5057
▁sync	-10.5058
▁maximum	-10.5062
Actions	-10.5071
escape	-10.5072
▁cookie	-10.5078
Digits	-10.5079
INIT	-10.5082
Fetch	-10.5083
bo	-10.5084
ReturnType	-10.5086
Unexpected	-10.5091
Words	-10.5097
let	-10.5102
▁columnName	-10.5114
UP	-10.5115
na	-10.5119
lib	-10.512
▁origin	-10.512
▁trans	-10.5121
Credential	-10.5126
Mark	-10.5129
▁UnsupportedOp	-10.513
KeyValue	-10.5131
ci	-10.5138
CmsObject	-10.5139
erationException	-10.5147
▁Read	-10.5148
2:	-10.5152
▁ca	-10.5155
▁ImmutableList	-10.5155
Validate	-10.5156
TS	-10.5157
▁shutdown	-10.5159
▁Predicate	-10.5159
▁Void	-10.5161
▁memory	-10.5162
Decl	-10.5163
names	-10.5166
▁JSONArray	-10.5182
▁editor	-10.5184
TER	-10.5184
▁binary	-10.519
Clazz	-10.5195
Components	-10.5195
▁override	-10.52
initialize	-10.52
getStart	-10.5201
▁":"	-10.5203
▁amount	-10.5205
Instant	-10.5206
Specific	-10.5206
▁--	-10.5207
Diagnostic	-10.5207
IllegalA	-10.5209
pow	-10.521
▁credentials	-10.5221
▁keep	-10.5228
less	-10.5231
▁resolver	-10.5232
getLocal	-10.5239
Appender	-10.524
▁UUID	-10.5241
try	-10.5242
SHA	-10.5249
getVersion	-10.525
Selected	-10.5251
▁parsed	-10.5256
▁objects	-10.5258
Runnable	-10.5262
nextElement	-10.5266
▁Basic	-10.5269
Arr	-10.5269
Based	-10.527
Mem	-10.5272
Pipe	-10.5274
putAll	-10.528
selected	-10.5285
grid	-10.529
dm	-10.5294
4:	-10.5296
▁unique	-10.5303
MD	-10.5305
sib	-10.5307
Logging	-10.5325
▁gbc	-10.5327
getService	-10.5329
▁success	-10.5332
RO	-10.5336
ttpURLConnection	-10.5337
▁deployment	-10.5341
▁layout	-10.5342
second	-10.5346
cap	-10.5352
▁serialize	-10.536
GroupName	-10.5361
Cancel	-10.5367
▁events	-10.5371
▁6	-10.5376
ADD	-10.5381
sPer	-10.5384
▁month	-10.5386
Opt	-10.5387
▁sorted	-10.5388
protocol	-10.539
▁Charset	-10.5391
getMin	-10.5392
red	-10.5393
Decoder	-10.5394
Matches	-10.5395
▁Command	-10.5397
getBase	-10.5399
fe	-10.5407
ance	-10.5409
now	-10.5411
24	-10.5412
▁DevFailed	-10.5414
▁take	-10.5425
▁optional	-10.5427
ssl	-10.5431
▁between	-10.5435
oc	-10.5439
▁you	-10.544
draw	-10.5441
▁4)	-10.5444
render	-10.5446
▁getPersistence	-10.545
items	-10.5451
BigDecimal	-10.5452
Marshaller	-10.5456
ally	-10.5461
ating	-10.5463
Filename	-10.5465
EventType	-10.5465
▁Event	-10.5466
fsp	-10.5474
lt	-10.5477
▁delay	-10.5486
ence	-10.5495
▁mark	-10.5498
Remaining	-10.5501
words	-10.5501
space	-10.5507
Distribution	-10.5509
Variant	-10.5509
NUMBER	-10.5509
FINDER	-10.5509
▁still	-10.5509
Dynamic	-10.5511
Scheme	-10.5512
remaining	-10.5515
readInt	-10.5518
SUB	-10.5529
go	-10.5532
BY	-10.5537
▁Byte	-10.5544
[0],	-10.5549
ca	-10.555
▁ssl	-10.5551
ob	-10.5551
ById	-10.5552
pi	-10.5553
site	-10.5554
tl	-10.5556
CC	-10.5556
▁findBy	-10.5565
rv	-10.5566
▁paths	-10.5574
methodName	-10.5579
und	-10.5581
ness	-10.5587
▁free	-10.5597
GUI	-10.5598
▁like	-10.5601
Jsp	-10.5603
▁LinkedHashMap	-10.5603
sBy	-10.5607
Transfer	-10.5615
▁shape	-10.5615
Preference	-10.5621
▁they	-10.5623
Entities	-10.5632
Pixel	-10.5632
hasMoreElements	-10.5632
Exit	-10.5636
▁radius	-10.5639
Debug	-10.564
chunk	-10.5642
dialog	-10.5642
Reason	-10.5643
Generated	-10.5645
getTable	-10.5659
Running	-10.566
ds	-10.568
AR	-10.5683
tableName	-10.5683
Person	-10.5683
schedule	-10.5684
HttpClient	-10.5685
thread	-10.5688
▁stats	-10.5688
Amount	-10.5689
drools	-10.5693
DISPLAY	-10.5694
▁during	-10.5694
PROP	-10.5695
▁24	-10.57
▁icon	-10.5705
payload	-10.5707
▁panel	-10.5707
interval	-10.5709
▁binding	-10.5714
sync	-10.5716
▁substitution	-10.5724
ncodingException	-10.5725
sign	-10.5725
age	-10.5727
getDescription	-10.5732
getHost	-10.5735
▁processor	-10.5737
Throw	-10.5741
JC	-10.5742
▁know	-10.5748
▁menu	-10.5753
MediaType	-10.5753
-8"	-10.5754
Origin	-10.5754
pool	-10.5755
▁different	-10.5756
getPort	-10.5756
▁high	-10.5759
getLogger	-10.5759
setAccessible	-10.5763
▁contain	-10.5764
Days	-10.5765
center	-10.5772
Rpc	-10.5775
JS	-10.5776
getColumn	-10.578
▁"");	-10.5786
▁until	-10.579
▁variant	-10.579
▁dbc	-10.5791
feature	-10.5791
▁transition	-10.5794
getFile	-10.58
Matching	-10.5804
br	-10.5804
ther	-10.5809
▁equal	-10.581
▁features	-10.5813
CREATE	-10.5813
filename	-10.5813
▁engine	-10.5816
▁rec	-10.5818
Manifest	-10.5819
orElse	-10.5821
Old	-10.5826
Getter	-10.5829
addChild	-10.583
BigInteger	-10.5837
weight	-10.5839
getSession	-10.5841
Modified	-10.5847
getAttributes	-10.5854
▁PrintWriter	-10.5866
jar	-10.5869
▁driver	-10.5871
▁down	-10.5876
▁Model	-10.5879
▁Statement	-10.5879
bit	-10.5882
OFFSET	-10.5883
js	-10.5883
▁intent	-10.5888
Other	-10.5893
▁weight	-10.5895
product	-10.5895
getLocalized	-10.5898
Example	-10.59
encoding	-10.5901
poll	-10.5902
▁":	-10.5906
dst	-10.5913
ck	-10.5917
▁correct	-10.5919
writeLock	-10.5927
&	-10.5928
Completed	-10.5937
Trans	-10.5944
FormalParameter	-10.5946
sqrt	-10.5946
▁upper	-10.5947
▁Invocation	-10.5948
Pending	-10.5955
▁getValue	-10.5958
▁exc	-10.5968
▁started	-10.5969
Segments	-10.5969
▁forward	-10.597
cert	-10.5973
desc	-10.5974
▁eDataType	-10.5984
▁sample	-10.5984
▁being	-10.599
LT	-10.5994
+1]	-10.5997
CS	-10.6003
Show	-10.6007
SELECT	-10.6008
Used	-10.6008
▁dep	-10.6008
Alert	-10.601
▁'0'	-10.601
--------------	-10.601
CONTEXT	-10.601
MethodName	-10.6016
▁failure	-10.602
_1,	-10.6022
DIR	-10.6023
▁screen	-10.6024
ResourceBundle	-10.6028
▁Project	-10.6028
Ch	-10.603
Evaluation	-10.6031
CharSequence	-10.6038
Equal	-10.6047
regex	-10.6047
▁ignored	-10.6051
Cost	-10.6052
ServiceException	-10.6053
BE	-10.6055
Send	-10.6056
Currency	-10.6061
Addresses	-10.6065
Revision	-10.6068
getChildren	-10.6069
▁Buffered	-10.6072
RG	-10.6073
Ring	-10.6074
Producer	-10.6075
▁se	-10.6077
username	-10.6079
ATTR	-10.6081
▁edit	-10.6083
getSystem	-10.6084
Sp	-10.6087
tags	-10.6092
ver	-10.6093
digest	-10.6101
▁schedule	-10.6105
Padding	-10.6105
▁Coordinate	-10.6111
▁changes	-10.6115
▁generator	-10.6119
back	-10.6119
CPDefinition	-10.6121
▁evaluate	-10.6121
headers	-10.6124
Pointer	-10.6125
Charset	-10.6125
Branch	-10.6136
expire	-10.6142
▁Short	-10.6152
▁seconds	-10.6154
Contents	-10.6156
ct	-10.6157
▁Not	-10.6157
▁cert	-10.6157
▁period	-10.6162
▁multiple	-10.6165
sleep	-10.6166
LONG	-10.6166
▁Remove	-10.6166
Bindings	-10.6167
▁For	-10.617
▁replacement	-10.6172
Exp	-10.6174
Candidate	-10.618
sWith	-10.6183
isNot	-10.6184
Ready	-10.6189
ClassNotFound	-10.6191
▁Geometry	-10.6193
Encoded	-10.6197
Help	-10.6199
CHECK	-10.6205
Mail	-10.6205
▁also	-10.6205
Modify	-10.6205
▁zip	-10.6207
Dump	-10.6211
▁provided	-10.6213
points	-10.6222
Versions	-10.6224
ColumnName	-10.6227
▁look	-10.6229
▁way	-10.6231
activity	-10.6235
chain	-10.6235
▁regex	-10.6239
▁wrapper	-10.624
ise	-10.6241
ccessException	-10.6244
▁ext	-10.6247
▁")"	-10.6254
▁Channel	-10.6256
AttributeValue	-10.6257
inputStream	-10.6269
ContentType	-10.627
Scanner	-10.6271
Configurations	-10.6271
ParameterTypes	-10.6274
▁security	-10.6284
▁pt	-10.6288
▁Process	-10.629
Relationship	-10.6292
score	-10.6293
security	-10.6298
FileSystem	-10.6303
GroupId	-10.6305
javax	-10.6308
Month	-10.6312
▁initialValue	-10.6312
▁Common	-10.6313
SE	-10.6314
▁annotations	-10.6315
EC	-10.6326
responses	-10.6332
RIGHT	-10.6337
Problem	-10.6337
Modification	-10.6337
FAILED	-10.6337
An	-10.6338
Supported	-10.634
available	-10.6344
▁HTTP	-10.6362
removeAll	-10.6363
▁updateresources	-10.6367
Public	-10.6368
listeners	-10.6369
▁rel	-10.6371
entries	-10.6371
ling	-10.6372
▁INDArray	-10.6384
CR	-10.6388
▁#	-10.639
compute	-10.6396
Forward	-10.6397
▁javax	-10.6398
iz	-10.6398
▁100	-10.64
▁NULL	-10.6406
▁CLASS	-10.6407
Checksum	-10.6413
▁adapter	-10.6414
ION	-10.6416
Regex	-10.6424
Audit	-10.6428
window	-10.6439
lp	-10.644
getServer	-10.6441
classes	-10.6444
getOwner	-10.6449
▁stat	-10.6455
TypeEnum	-10.646
writeInt	-10.6463
Break	-10.6469
Catalog	-10.6471
Refresh	-10.6471
Mgr	-10.6471
Qualifier	-10.6472
pop	-10.6473
▁servlet	-10.6487
connect	-10.6488
▁js	-10.6489
▁declared	-10.6495
▁SI	-10.6497
▁external	-10.6509
settings	-10.651
free	-10.651
ATION	-10.6518
Mappings	-10.652
Operations	-10.6522
Download	-10.6527
ne	-10.653
Pane	-10.6534
Angle	-10.6538
Complex	-10.6538
netSocketAddress	-10.6539
Free	-10.654
▁rules	-10.6542
▁Rectangle	-10.6542
nextInt	-10.6553
▁reason	-10.6555
▁Un	-10.6559
MBean	-10.6561
▁ruleJvm	-10.6565
lastModified	-10.6567
Existing	-10.6568
General	-10.6573
ignore	-10.6579
cookie	-10.658
SO	-10.6581
od	-10.6583
▁monitor	-10.6584
folder	-10.6585
Geo	-10.6588
▁rw	-10.659
Where	-10.6591
▁Certificate	-10.6596
Hint	-10.6597
Append	-10.6599
▁seq	-10.6601
▁Tree	-10.6604
▁Schema	-10.6606
Instruction	-10.6606
Slice	-10.6606
STYLE	-10.6606
Since	-10.6606
WRITE	-10.6607
▁implementation	-10.6607
acceptLanguage	-10.661
▁obtain	-10.661
Over	-10.6612
▁acc	-10.6618
Js	-10.6618
DO	-10.6626
IM	-10.6627
▁dis	-10.6633
▁exclude	-10.6636
)){	-10.6639
▁account	-10.6641
wait	-10.6642
ep	-10.6645
hi	-10.6648
(0));	-10.6651
dl	-10.6654
▁require	-10.6655
▁)?	-10.6661
pr	-10.6662
Constraints	-10.6664
ByteString	-10.6666
mm	-10.6667
SHORT	-10.6675
DOCUMENT	-10.6675
3:	-10.668
numCols	-10.668
Resolved	-10.6684
▁fix	-10.6685
▁runtime	-10.6688
WS	-10.669
▁notification	-10.669
▁It	-10.6693
▁accountName	-10.6694
zip	-10.6696
setDefault	-10.6698
26	-10.6699
▁sc	-10.6704
▁fragment	-10.671
exec	-10.6725
▁Try	-10.6731
▁(0	-10.6738
relation	-10.674
▁getLog	-10.6741
▁pc	-10.6741
▁numberOf	-10.6742
isNullOrEmpty	-10.6744
Codes	-10.6744
awt	-10.6744
Workflow	-10.6745
▁updateresource	-10.6745
Tables	-10.6745
▁network	-10.6749
ical	-10.675
▁Variable	-10.6753
vert	-10.6756
▁priority	-10.676
▁redirect	-10.6762
▁Validation	-10.6762
▁metrics	-10.6763
Off	-10.6765
0.	-10.6771
▁merged	-10.6772
Linked	-10.6774
term	-10.6783
peek	-10.6791
Immutable	-10.6795
lease	-10.68
setId	-10.68
St	-10.6804
▁both	-10.6805
▁16)	-10.6806
HTML	-10.6811
Dataset	-10.6811
Pure	-10.6813
▁about	-10.6815
▁Action	-10.6818
Css	-10.6819
case	-10.682
QNAME	-10.6823
Dest	-10.6832
▁deserialize	-10.6833
ST	-10.6834
▁").	-10.6854
ONE	-10.6863
▁Parse	-10.6869
IllegalAccess	-10.6869
checkArgument	-10.6869
layer	-10.6874
▁cf	-10.6874
▁operator	-10.6879
Focus	-10.6883
TIMEOUT	-10.6884
Handlers	-10.6886
▁login	-10.6887
PUT	-10.6887
Compiler	-10.6889
▁factor	-10.689
resolved	-10.6891
▁increment	-10.6904
▁dist	-10.6907
▁primary	-10.6908
columns	-10.6915
ated	-10.6915
▁serializer	-10.6917
▁rest	-10.6932
APP	-10.6934
future	-10.6935
fix	-10.6936
getResources	-10.6939
Parsed	-10.6945
getP	-10.6947
FileNotFound	-10.6947
Detector	-10.6948
▁cb	-10.6951
FILTER	-10.6953
Conversation	-10.6954
Using	-10.6956
▁again	-10.6957
▁createOrUpdate	-10.6963
▁box	-10.6975
Inline	-10.6983
MimeType	-10.6985
rate	-10.6986
▁companyId	-10.6989
▁modify	-10.6989
Collections	-10.699
Bound	-10.6994
▁upload	-10.6995
En	-10.7004
▁category	-10.7007
Enable	-10.7016
▁modified	-10.7018
*/	-10.7022
▁Use	-10.7022
▁selector	-10.7024
TASK	-10.7025
▁Gr	-10.7027
▁Block	-10.7028
Vars	-10.703
▁normalize	-10.704
▁generated	-10.7044
▁md	-10.7045
Difference	-10.7047
Sets	-10.7053
▁contents	-10.7055
▁dump	-10.7059
▁Enumeration	-10.7062
Real	-10.7064
▁permission	-10.7065
Keyword	-10.7069
LIMIT	-10.7069
rc	-10.7071
getC	-10.7072
mul	-10.7078
▁Mutable	-10.7078
shutdown	-10.7082
▁cc	-10.7083
duration	-10.7083
Install	-10.7085
owner	-10.7086
Persistent	-10.7096
▁Transformer	-10.7098
▁debug	-10.7102
setStatus	-10.7108
▁force	-10.7108
(""))	-10.7114
▁publish	-10.7122
display	-10.7123
_0)	-10.7127
▁classpath	-10.7128
Locked	-10.7129
que	-10.7131
▁CmsException	-10.7131
▁getDefault	-10.7133
=2;	-10.7141
▁constant	-10.7144
▁Random	-10.7147
Lifecycle	-10.7155
plugin	-10.7157
Paint	-10.7161
Push	-10.7167
Violation	-10.7168
STREAM	-10.7168
▁HtmlTree	-10.7169
span	-10.7174
▁pipeline	-10.7177
▁either	-10.718
CT	-10.7186
▁IO	-10.7186
▁tail	-10.7191
▁span	-10.7196
Addr	-10.7197
Sec	-10.7205
route	-10.7208
Warning	-10.7212
▁were	-10.7213
0000	-10.722
cls	-10.7221
ABLE	-10.7223
getConfig	-10.7224
trigger	-10.7227
▁pid	-10.7228
elem	-10.7228
comment	-10.7232
Track	-10.7233
Measure	-10.7237
GENERIC	-10.724
Shift	-10.724
Contact	-10.7241
ENABLED	-10.7242
getPoint	-10.7242
MILLISECONDS	-10.7243
Ctx	-10.7245
34	-10.7251
FS	-10.7253
Reset	-10.7254
AM	-10.7256
▁rc	-10.7258
TableName	-10.7264
getTag	-10.7264
▁paint	-10.7269
Naming	-10.7273
ExecutorService	-10.7274
▁bottom	-10.7281
RES	-10.7288
▁negative	-10.7288
▁refresh	-10.7294
Chart	-10.7302
getResult	-10.7304
candidate	-10.7305
media	-10.7306
Numeric	-10.7308
runtime	-10.7309
Blob	-10.7312
lu	-10.7312
Library	-10.7313
bulk	-10.7313
Repeat	-10.7314
▁FFDCFilter	-10.7316
ElementDecl	-10.732
results	-10.7321
▁once	-10.7321
Availability	-10.7324
▁selection	-10.7327
▁bond	-10.7334
45	-10.7338
invalid	-10.7339
▁swap	-10.7347
▁startTime	-10.7347
▁","	-10.7349
Ms	-10.7353
▁NO	-10.7359
FailedException	-10.7359
▁Entry	-10.7364
Serialization	-10.7366
▁Do	-10.7367
toHex	-10.7368
▁Search	-10.737
getBoolean	-10.737
par	-10.7376
▁cipher	-10.7377
existing	-10.7385
},	-10.7386
valid	-10.7387
Aware	-10.7387
Contract	-10.7387
Received	-10.7392
toCharArray	-10.7393
getItem	-10.7396
▁Note	-10.7399
▁TreeMap	-10.7401
QualifiedName	-10.7409
import	-10.7413
▁primitive	-10.7418
parts	-10.7421
serialize	-10.7431
auto	-10.7436
60	-10.7436
lf	-10.7437
▁worker	-10.7439
▁finish	-10.7452
getLocale	-10.7453
▁populate	-10.7455
driver	-10.7457
bits	-10.7457
▁strategy	-10.7459
FEATURE	-10.7461
Indices	-10.7461
▁instead	-10.7461
UNKNOWN	-10.7461
Clear	-10.7461
writeObject	-10.7461
FOR	-10.7464
opencms	-10.7464
Platform	-10.7467
getClient	-10.7469
SECONDS	-10.7469
ReadOnly	-10.7471
isNotEmpty	-10.7476
Bond	-10.748
▁oldValue	-10.7484
▁shared	-10.7494
sym	-10.7507
Multiple	-10.7508
login	-10.7511
▁certificate	-10.7514
▁Tag	-10.7516
▁labels	-10.7521
ted	-10.7525
Indexes	-10.7525
Links	-10.7528
▁mod	-10.7534
Creation	-10.7535
UNIT	-10.7536
▁iteration	-10.7536
should	-10.7536
Transformation	-10.7537
▁ok	-10.7539
ring	-10.7542
getID	-10.7545
pp	-10.7545
Started	-10.7546
bar	-10.7548
▁gr	-10.755
▁received	-10.7552
▁keyArea	-10.7552
▁geometry	-10.7565
▁what	-10.757
getRoot	-10.7577
ite	-10.7577
Side	-10.758
ue	-10.7586
Conditions	-10.7596
submit	-10.7596
Publisher	-10.7597
)*	-10.7602
dn	-10.7603
▁fn	-10.7607
▁compiler	-10.7609
ified	-10.7609
ability	-10.761
Dictionary	-10.7611
CONFIG	-10.7611
LEVEL	-10.7611
Browser	-10.7612
ice	-10.7614
our	-10.7614
HashMap	-10.7616
getProject	-10.7618
trans	-10.7619
getResponse	-10.7622
IAtom	-10.7623
▁sw	-10.7623
Subscriber	-10.7626
▁Api	-10.7634
consumer	-10.7639
EntityType	-10.7641
package	-10.7642
Tracker	-10.7647
Blocks	-10.7648
▁Make	-10.7656
getOutput	-10.7658
▁"_"	-10.766
Users	-10.766
=1;	-10.7666
variable	-10.7667
dd	-10.7669
Invoke	-10.7672
Callable	-10.7673
US	-10.7675
Jobs	-10.7678
Deleted	-10.7678
files	-10.7681
Annotated	-10.7684
Mod	-10.7684
▁JSONException	-10.7685
BUFFER	-10.7687
Ratio	-10.7687
JOB	-10.7687
spec	-10.7687
3);	-10.7688
▁"%	-10.7689
Cmd	-10.7691
▁principal	-10.77
expr	-10.7704
▁reduce	-10.7709
px	-10.7712
▁minimum	-10.7713
getGroup	-10.7718
ix	-10.7718
▁constraint	-10.7723
Checker	-10.7726
▁initialized	-10.7731
▁draw	-10.7734
▁per	-10.7735
Sent	-10.7737
low	-10.7738
▁ts	-10.7738
Prev	-10.7739
addContent	-10.7747
Convert	-10.7753
Note	-10.7756
▁mat	-10.7757
cloud	-10.7763
INTERNAL	-10.7763
Sentence	-10.7763
Pid	-10.7765
floor	-10.7765
▁setter	-10.777
language	-10.777
au	-10.7773
loader	-10.7774
Req	-10.7779
SS	-10.7783
▁sentence	-10.7786
getClassName	-10.7791
▁dot	-10.7796
Super	-10.7798
Windows	-10.7803
Projection	-10.7805
Reserved	-10.7806
Dev	-10.7812
("-	-10.7815
sp	-10.7823
▁scroll	-10.7825
Me	-10.783
HOUR	-10.783
Watch	-10.7831
Hook	-10.7833
Video	-10.7833
cal	-10.7834
Coordinate	-10.7835
allow	-10.7836
PE	-10.7837
Program	-10.7838
identifier	-10.7843
SimpleDateFormat	-10.7847
tf	-10.7852
Bitmap	-10.7853
Sip	-10.7855
▁\"	-10.7863
▁throwable	-10.7867
addListener	-10.7873
▁addresource	-10.7879
DN	-10.7902
▁methodBuilder	-10.7904
acc	-10.7905
fw	-10.7906
▁Generic	-10.7908
hashCode	-10.7912
Bottom	-10.7917
Choice	-10.7917
cf	-10.792
▁Bundle	-10.7921
Shard	-10.7924
▁delimiter	-10.7927
▁Record	-10.7928
notify	-10.7929
stmt	-10.7931
Units	-10.7933
statement	-10.7933
IR	-10.7934
▁waiting	-10.7937
ible	-10.7937
▁outer	-10.794
Setup	-10.7942
Redis	-10.7951
_0=	-10.7956
JSONObject	-10.7956
,"	-10.7957
ptr	-10.7959
▁caller	-10.796
▁clone	-10.7962
Place	-10.7963
▁hex	-10.7968
▁portlet	-10.7972
More	-10.798
▁attrs	-10.7983
scan	-10.7986
Decimal	-10.7994
eg	-10.7994
ORDER	-10.7994
Cloud	-10.7995
ONLY	-10.7995
DRL	-10.7996
Exchange	-10.7996
▁otherwise	-10.7996
Checked	-10.7999
ld	-10.8009
dependency	-10.801
before	-10.801
getHeader	-10.8011
▁Comparator	-10.8014
\""	-10.8014
dist	-10.8015
▁identity	-10.8021
▁br	-10.8026
▁configured	-10.8032
▁filters	-10.8037
▁Cluster	-10.8043
setColor	-10.8045
getSize	-10.8045
35	-10.8047
longValue	-10.8052
Gateway	-10.8053
PR	-10.8054
NUM	-10.8055
40	-10.8063
Creator	-10.8068
QUERY	-10.8074
▁following	-10.8074
COLOR	-10.8074
Phase	-10.8077
Ignore	-10.8078
okhttp	-10.8079
bucket	-10.8084
mapper	-10.809
controller	-10.8091
▁components	-10.8096
▁SAXException	-10.8096
Providers	-10.8098
▁'/'	-10.8098
▁dy	-10.81
▁pd	-10.8104
Loading	-10.8106
▁dx	-10.8107
▁completed	-10.8116
getInput	-10.8117
▁canvas	-10.812
▁sym	-10.8123
pay	-10.813
setContent	-10.813
▁alpha	-10.8131
Tr	-10.8133
full	-10.8138
Acl	-10.8147
Done	-10.8151
Fallback	-10.8154
BAD	-10.8154
:2:	-10.8154
▁3;	-10.8154
md	-10.8155
findBy	-10.8161
addParameter	-10.8163
Cipher	-10.8172
category	-10.8173
[1]);	-10.8173
ensure	-10.8174
region	-10.8174
▁issue	-10.8175
▁words	-10.8175
▁symbol	-10.8187
▁consume	-10.8189
Singleton	-10.8192
Dist	-10.8194
Named	-10.8199
storage	-10.8201
▁packageName	-10.8207
▁cos	-10.8218
seek	-10.8221
flags	-10.8223
SL	-10.8225
▁Authentication	-10.8228
('/'	-10.8234
▁instanceValue	-10.8234
getAtom	-10.8239
▁dependencies	-10.8244
shape	-10.8244
▁means	-10.8244
BYTE	-10.8246
led	-10.825
any	-10.8252
▁transformer	-10.8255
Urls	-10.8258
▁outputStream	-10.8259
messages	-10.8259
▁addresources	-10.8273
▁font	-10.8278
▁Duration	-10.8279
{}	-10.8287
▁contentType	-10.829
▁section	-10.8292
CH	-10.8294
▁Commerce	-10.8296
nl	-10.83
Locator	-10.8308
SUCCESS	-10.8314
Procedure	-10.8314
Migration	-10.8314
Terminal	-10.8314
Topology	-10.8314
▁necessary	-10.8314
ACCESS	-10.8314
NORMAL	-10.8314
Implementation	-10.8314
Meter	-10.8315
Partial	-10.8315
Dimension	-10.832
▁mean	-10.8324
52	-10.8324
play	-10.8337
Skip	-10.8338
▁let	-10.834
topic	-10.8341
publish	-10.8341
FF	-10.8342
▁sent	-10.8343
▁answer	-10.8363
DataManager	-10.837
▁special	-10.8373
curr	-10.8378
++){	-10.838
voice	-10.8387
flat	-10.8389
▁subscription	-10.8391
03	-10.8393
▁restore	-10.8393
SCREEN	-10.8396
DOUBLE	-10.8396
CONSTRAINT	-10.8396
Substitution	-10.8396
▁parsing	-10.8396
qualified	-10.8396
▁assume	-10.8396
Tool	-10.8408
mask	-10.8413
nt	-10.8415
Multimap	-10.842
TreeNode	-10.8423
Tango	-10.8423
BYTES	-10.8424
TE	-10.8427
JMS	-10.8428
Threads	-10.8432
▁buff	-10.8435
Clock	-10.8441
inc	-10.8444
DS	-10.8446
chars	-10.8449
Nanos	-10.8462
▁safe	-10.8467
Struct	-10.8476
Operand	-10.8477
ocpDate	-10.8477
Inclusive	-10.8478
Money	-10.8478
Translation	-10.8478
IMAGE	-10.8478
ru	-10.8486
unused	-10.8486
Sid	-10.8496
MP	-10.8499
▁'.'	-10.85
tile	-10.8504
descriptor	-10.8508
control	-10.8509
▁"-	-10.8513
▁members	-10.8513
▁Q	-10.8517
▁translate	-10.8524
▁candidates	-10.8529
enabled	-10.853
CU	-10.8532
▁datasource	-10.8535
▁Types	-10.8542
AC	-10.8547
Finish	-10.855
Material	-10.856
Handshake	-10.856
Overlay	-10.856
android	-10.856
('.')	-10.8561
addPostParam	-10.8562
▁helper	-10.8563
cd	-10.8563
Utilities	-10.8565
▁IAtom	-10.8566
Numbers	-10.8566
mf	-10.8568
Assertion	-10.857
▁grid	-10.8571
framework	-10.8574
mt	-10.8579
Scheduled	-10.8581
▁TypeToken	-10.8585
OPEN	-10.8587
Jvm	-10.8589
▁operations	-10.8593
getModifiers	-10.8594
button	-10.8594
directory	-10.8594
Surface	-10.8598
ml	-10.8608
non	-10.8609
only	-10.8609
ResourceInner	-10.8614
dc	-10.863
Executable	-10.8641
CLIENT	-10.8644
Flush	-10.8644
FULL	-10.8644
Retrieve	-10.8644
Shell	-10.8644
network	-10.8645
newArrayList	-10.8646
Defined	-10.8646
setType	-10.8652
▁InternalX	-10.8652
Membership	-10.8655
▁scheme	-10.8661
▁getResource	-10.8662
▁capacity	-10.8663
▁assignment	-10.8665
▁characters	-10.8666
Apply	-10.8672
▁isValid	-10.8678
DataSet	-10.8679
Restriction	-10.8682
getStatusCode	-10.8684
actual	-10.8688
required	-10.8692
FromString	-10.8693
▁Instance	-10.8712
feat	-10.8714
▁HttpResponse	-10.8718
pass	-10.8722
▁matching	-10.8723
Increment	-10.8725
seconds	-10.8726
License	-10.8726
500	-10.8727
Extra	-10.8727
Journal	-10.8728
Temporal	-10.8728
DESCRIPTION	-10.8728
Bug	-10.8728
Fault	-10.8729
▁due	-10.8731
pa	-10.8742
Second	-10.8742
FormatException	-10.8756
▁quote	-10.8757
SP	-10.8758
variant	-10.8759
▁example	-10.8766
after	-10.8767
force	-10.8768
▁Y	-10.877
LS	-10.8778
▁permissions	-10.878
ServletContext	-10.8782
face	-10.8786
▁attributeName	-10.8786
ii	-10.8793
44	-10.8795
LOCAL	-10.8795
SECOND	-10.8803
▁async	-10.8804
0;	-10.8805
getParameters	-10.8808
/*	-10.8809
("</	-10.8809
Classifier	-10.881
bb	-10.8812
getFirstChild	-10.8814
▁disable	-10.8816
▁normal	-10.8817
▁stage	-10.8818
▁ApiResponse	-10.8819
[4]	-10.8823
▁ac	-10.8826
▁depth	-10.8829
▁bound	-10.8833
▁WS	-10.8837
Same	-10.8839
filtered	-10.8839
▁tab	-10.8841
Changes	-10.8843
▁getter	-10.8844
▁entityType	-10.8845
▁Template	-10.8849
Unsupported	-10.8851
▁endIndex	-10.8852
fragment	-10.8854
▁1:	-10.8855
getConfiguration	-10.8864
icon	-10.8865
tab	-10.8867
▁Runtime	-10.887
▁enum	-10.8873
▁relative	-10.8887
Deserializer	-10.889
Extract	-10.8894
dim	-10.8894
Quick	-10.8898
ACTIVE	-10.8898
SEVERE	-10.8898
▁MozuUrl	-10.8898
Resolution	-10.8899
()+"	-10.8901
Feat	-10.8902
▁32	-10.8902
Ssl	-10.8902
move	-10.8905
8:	-10.8906
initial	-10.8913
▁standard	-10.8914
▁Return	-10.8919
mkdirs	-10.892
getRaw	-10.8932
require	-10.8933
49	-10.8934
▁12	-10.8935
Final	-10.8938
▁packet	-10.8939
printf	-10.8939
▁Container	-10.8944
▁StringWriter	-10.8945
Scheduler	-10.8948
eUnset	-10.8954
ClassInfo	-10.8963
▁processed	-10.8965
setEnabled	-10.8968
▁SA	-10.8968
▁Item	-10.8969
▁whe	-10.897
interrupt	-10.8974
getIdentifier	-10.8979
▁Constant	-10.898
Organization	-10.8981
为	-10.8984
RECORD	-10.8984
▁Intent	-10.8985
Mapped	-10.8986
▁seed	-10.8986
]))	-10.8987
dispose	-10.8987
FacesContext	-10.8989
▁bitmap	-10.899
jcas	-10.899
▁assign	-10.899
PrivateKey	-10.8991
Added	-10.8992
Sources	-10.8992
getCanonicalName	-10.8992
▁Column	-10.8995
▁branch	-10.8995
▁getInstance	-10.8996
(":")	-10.9
are	-10.9001
Portlet	-10.9007
27	-10.9008
race	-10.901
▁StringTokenizer	-10.901
▁pw	-10.9013
getParam	-10.902
Composite	-10.9023
Face	-10.9027
43	-10.9027
▁Comparable	-10.9036
▁checkArgument	-10.9039
▁60	-10.904
▁fetchBy	-10.9044
Release	-10.9046
fx	-10.9053
▁needs	-10.9058
80	-10.9059
LOCK	-10.9061
quote	-10.9064
▁spec	-10.9066
Categories	-10.9071
HEIGHT	-10.9071
▁later	-10.9072
Additional	-10.9072
ities	-10.9074
Discovery	-10.9074
▁setting	-10.9074
▁less	-10.9075
Soy	-10.9076
Lower	-10.9082
Registered	-10.9086
MPS	-10.9092
writeAttribute	-10.9094
Negative	-10.9098
▁me	-10.9103
ql	-10.9103
▁getNext	-10.9105
getModel	-10.9109
rawtype	-10.911
ROW	-10.9111
SA	-10.9126
formatter	-10.9127
IAtomContainer	-10.9127
responseFields	-10.9133
▁integer	-10.9137
ObjectName	-10.9146
getLog	-10.9155
Hierarchy	-10.9159
ZERO	-10.9159
Framework	-10.916
▁cr	-10.9169
▁Multi	-10.917
Family	-10.9177
operationType	-10.9179
Replica	-10.9184
JarFile	-10.9184
▁cost	-10.9184
LineString	-10.9185
28	-10.9187
sNext	-10.9188
▁versionId	-10.9191
GL	-10.9194
Sparse	-10.9196
bound	-10.9198
Find	-10.9199
▁Fast	-10.9201
▁ad	-10.9202
29	-10.9206
65	-10.9209
getTitle	-10.9211
nz	-10.9212
geometry	-10.9213
▁snapshot	-10.9214
Fix	-10.9216
ens	-10.9221
▁Constructor	-10.9221
36	-10.9221
▁exit	-10.9224
▁primaryKey	-10.9225
▁digits	-10.9227
GC	-10.9228
SH	-10.9236
▁destroy	-10.9238
Username	-10.924
mac	-10.9243
▁maybe	-10.9244
Pro	-10.9245
Curve	-10.9246
Orientation	-10.9247
ENCODING	-10.9247
46	-10.9248
Encryption	-10.9248
▁common	-10.9249
▁tz	-10.9249
flip	-10.925
▁EMPTY	-10.9252
▁addr	-10.9253
MSG	-10.9253
("}"	-10.9254
Requested	-10.9261
▁Reference	-10.9269
ast	-10.9277
References	-10.9286
lo	-10.9289
arc	-10.9292
Reduce	-10.9298
construct	-10.93
gauge	-10.9304
be	-10.9307
▁recursive	-10.931
▁startIndex	-10.9315
▁'{}'	-10.9315
DOM	-10.9317
▁dim	-10.9319
Policies	-10.9322
▁low	-10.9325
multi	-10.9327
listFiles	-10.9334
Special	-10.9336
▁above	-10.9336
Groovy	-10.9336
PUBLIC	-10.9336
Sink	-10.9337
isInfoEnabled	-10.9337
Zoom	-10.9337
▁hour	-10.9337
Replacement	-10.9337
▁ServiceResponse	-10.934
OperationStatus	-10.9344
▁appId	-10.9345
ext	-10.9345
allocate	-10.9345
Ordering	-10.9349
▁Source	-10.9352
Dep	-10.9354
PARENT	-10.9363
▁tasks	-10.9372
▁Logging	-10.9379
Connections	-10.938
CmsException	-10.9383
("/"))	-10.9386
servlet	-10.9387
PRE	-10.9387
200	-10.9389
getNumberOf	-10.9389
Updates	-10.9389
reverse	-10.9391
▁mc	-10.9392
▁userId	-10.9395
rammarAccess	-10.9396
home	-10.9397
Parameterized	-10.941
</	-10.9412
Launch	-10.9417
redirect	-10.9418
Private	-10.9419
edit	-10.9421
Semantic	-10.9427
centroid	-10.9427
是	-10.9427
MATCH	-10.9427
Capture	-10.9427
RULE	-10.9427
UTC	-10.9427
protobuf	-10.9427
▁download	-10.9441
GP	-10.9446
MenuItem	-10.9453
▁home	-10.9457
▁serialized	-10.9457
NEW	-10.946
TypeElement	-10.9461
getTableName	-10.9469
uid	-10.9469
▁UI	-10.9471
>>>()	-10.948
PC	-10.9485
inner	-10.9489
increment	-10.9491
equal	-10.9492
catch	-10.9493
NA	-10.9493
export	-10.9494
email	-10.95
Bad	-10.9501
fromJson	-10.9501
▁widget	-10.9505
Fail	-10.9507
▁gen	-10.9509
▁Find	-10.9513
▁EObject	-10.9514
Switch	-10.9517
OUTPUT	-10.9518
StringBuilder	-10.9518
mutable	-10.9518
INPUT	-10.9519
ServletException	-10.9521
hand	-10.9521
▁within	-10.9523
Reflection	-10.9524
Pairs	-10.9529
ty	-10.9536
seq	-10.9536
▁visible	-10.9537
MO	-10.955
▁checksum	-10.9552
▁track	-10.9565
NumberOf	-10.9567
▁Paged	-10.9572
place	-10.9573
▁compile	-10.9576
▁details	-10.9576
Gr	-10.9577
loadClass	-10.9581
layout	-10.9585
rpc	-10.959
▁loc	-10.9591
▁instances	-10.9592
WithHttp	-10.9597
▁blocks	-10.9605
▁Version	-10.9606
setMax	-10.9607
▁history	-10.9609
FIRST	-10.9609
compareAndSet	-10.9609
Known	-10.9609
▁such	-10.9609
Drop	-10.9609
▁MessageDigest	-10.9611
▁IOUtils	-10.9615
Actor	-10.9622
NotificationImpl	-10.9627
utf	-10.9629
getLocation	-10.9636
▁border	-10.9642
▁connections	-10.9643
getSuperclass	-10.9644
▁adjust	-10.9645
▁ss	-10.9652
▁SDVariable	-10.9668
▁EOF	-10.9669
getR	-10.967
▁Sql	-10.9675
sample	-10.9678
artifact	-10.968
capacity	-10.968
priority	-10.968
deployment	-10.9681
Jms	-10.9681
▁cmp	-10.9685
sha	-10.9686
▁JS	-10.9686
▁cast	-10.9686
ServletRequest	-10.9687
RM	-10.9688
Epoch	-10.9696
eGet	-10.97
Records	-10.97
book	-10.9701
FLOAT	-10.9702
PROJECT	-10.9702
Audio	-10.9702
Oracle	-10.9702
volume	-10.9702
Bulk	-10.9702
UserSegmentRel	-10.9702
nanoTime	-10.9702
▁dynamic	-10.9705
▁strings	-10.9706
▁pointer	-10.9713
LI	-10.9713
▁userName	-10.9714
▁retVal	-10.9714
JVM	-10.9718
▁Status	-10.9721
Best	-10.9721
OFF	-10.9721
^	-10.9727
dict	-10.9727
rel	-10.9729
▁Local	-10.9732
ITEM	-10.9735
ToAdd	-10.9738
▁Enum	-10.9747
Artifacts	-10.9752
getDeclaredField	-10.9755
▁KeyStore	-10.9755
charset	-10.9756
▁Jvm	-10.9758
VM	-10.9762
public	-10.9762
codePoint	-10.9762
▁Metric	-10.9763
Anno	-10.9768
▁isn	-10.9768
getNamespace	-10.9769
▁these	-10.9772
Repo	-10.9774
logical	-10.9776
repository	-10.9777
▁2.0	-10.9777
perform	-10.9778
supported	-10.9778
LayoutParams	-10.9782
accountId	-10.9785
▁20	-10.9786
ke	-10.979
Country	-10.9792
Sibling	-10.9794
不	-10.9795
Lambda	-10.9795
Mutation	-10.9795
RESPONSE	-10.9795
Feed	-10.9796
▁graphics	-10.9797
proc	-10.9798
enc	-10.9804
Csv	-10.9804
▁TreeSet	-10.9805
▁master	-10.9811
Navigation	-10.9818
Stmt	-10.9821
encoded	-10.9821
(0))	-10.9823
▁getProperty	-10.9832
Readable	-10.9832
▁QueryUtil	-10.984
cached	-10.984
vserver	-10.9847
▁Execution	-10.9849
▁Row	-10.9851
▁usage	-10.9852
Partitions	-10.9858
MM	-10.986
▁arrays	-10.9861
▁instantiate	-10.9867
Charsets	-10.9868
monitor	-10.9868
NE	-10.9873
notification	-10.9873
transport	-10.9874
Atoms	-10.9875
Symbols	-10.9876
You	-10.9878
▁Feature	-10.9879
▁bs	-10.988
Configs	-10.9882
▁Validator	-10.9883
▁getOrCreate	-10.9884
isNull	-10.9885
exp	-10.9887
Concept	-10.989
Histogram	-10.989
FRAME	-10.989
ordinal	-10.989
09	-10.9894
CSV	-10.9895
▁plan	-10.9895
5,	-10.9896
Finished	-10.9901
Requests	-10.9902
Watermark	-10.9905
▁define	-10.9905
sec	-10.9912
▁sip	-10.993
war	-10.9931
▁te	-10.9933
▁Servlet	-10.9939
▁Convert	-10.9942
fa	-10.9943
TH	-10.995
Digit	-10.9954
▁Activity	-10.9954
▁Label	-10.9958
direct	-10.9961
Resolve	-10.9962
▁matched	-10.9963
normalize	-10.9964
socket	-10.9966
configure	-10.9966
solution	-10.9969
tz	-10.997
sequence	-10.9971
matrix	-10.9971
forward	-10.9972
diff	-10.9973
UserInfo	-10.9974
▁getClass	-10.9975
FileStatus	-10.9976
simple	-10.9977
▁clientId	-10.9984
Inventory	-10.9985
Monomer	-10.9985
JAVA	-10.9985
Tail	-10.9985
▁positive	-10.9986
▁FileSystem	-10.9986
Classpath	-10.9987
▁finder	-10.9992
▁0.5	-10.9994
▁jedis	-11.0011
Dirs	-11.002
getConstructor	-11.0021
Targets	-11.0024
▁agent	-11.0026
▁invocation	-11.0028
▁currently	-11.0031
PropertyName	-11.0038
her	-11.0038
rl	-11.0038
▁returned	-11.004
);}	-11.0041
CO	-11.0042
Subnet	-11.0042
の	-11.0044
▁even	-11.0048
▁attachment	-11.0051
fail	-11.0059
Cast	-11.006
activate	-11.006
>(_	-11.0064
Week	-11.0066
dat	-11.007
▁iterable	-11.007
calculate	-11.0071
getReturnType	-11.0071
Replication	-11.0079
getDouble	-11.008
INFINITY	-11.0081
INTEGER	-11.0081
SCOPE	-11.0081
MENT	-11.0081
▁seen	-11.0082
▁MPSString	-11.0082
▁times	-11.0083
Images	-11.0084
▁Code	-11.0084
▁mid	-11.0087
ub	-11.0098
Preferences	-11.0101
▁embedded	-11.0102
calVarReturnType	-11.0105
Reg	-11.0105
▁basic	-11.011
▁construct	-11.0111
▁chart	-11.0112
▁entities	-11.0112
Into	-11.012
▁based	-11.012
parseLong	-11.0124
Hosts	-11.0125
▁th	-11.0127
Indent	-11.0127
getApp	-11.0129
▁De	-11.0132
writeByte	-11.0133
install	-11.0137
nd	-11.0143
rp	-11.0146
▁lb	-11.0152
ass	-11.0153
Illegal	-11.0154
parsed	-11.0164
booleanValue	-11.0167
Edges	-11.0168
prepare	-11.0168
pipeline	-11.0169
withParam	-11.0169
numRows	-11.0172
▁partial	-11.0176
REFERENCE	-11.0178
SUFFIX	-11.0178
Tenant	-11.0178
▁ifNoneMatch	-11.0178
hour	-11.0181
▁filePath	-11.0181
angle	-11.0181
SiteRoot	-11.0182
Setter	-11.0183
hole	-11.0185
PhoneNumber	-11.0186
div	-11.0187
▁kernel	-11.0187
▁impl	-11.0189
▁sec	-11.0192
MalformedURL	-11.0192
▁your	-11.0196
Pr	-11.0196
▁dataSource	-11.0197
▁padding	-11.0198
▁backup	-11.0214
▁Proxy	-11.0215
Ver	-11.0221
▁axis	-11.0224
we	-11.0224
▁NumberFormat	-11.0228
BLOCK	-11.023
Ident	-11.023
("",	-11.0235
zone	-11.0237
readLock	-11.0243
▁2]	-11.0247
90	-11.0247
eNotification	-11.0249
getDate	-11.0257
▁Ignore	-11.0261
NodeType	-11.0266
gl	-11.0267
executor	-11.0268
SVG	-11.0271
>"	-11.0271
calendar	-11.0272
tuple	-11.0272
Exclude	-11.0274
CHANNEL	-11.0276
▁LinkedHashSet	-11.0276
pAddParam	-11.0276
Two	-11.0276
DD	-11.0277
▁install	-11.0278
closeQuietly	-11.0278
txt	-11.0281
RGB	-11.0281
▁Constraint	-11.0285
▁','	-11.0287
▁direct	-11.0288
dbc	-11.0289
Tracking	-11.029
32)	-11.0296
Delimiter	-11.03
Radius	-11.03
▁Time	-11.0302
▁bar	-11.0306
Fire	-11.0306
eak	-11.0308
Classification	-11.0308
nodes	-11.0309
▁jarFile	-11.031
▁nb	-11.0312
▁tolerance	-11.0314
▁atoms	-11.0315
isEnabled	-11.0317
Alignment	-11.032
mod	-11.0324
isAnnotation	-11.0325
sip	-11.0326
▁~	-11.0327
ann	-11.0329
▁$	-11.0332
▁scanner	-11.0339
▁ii	-11.034
gis	-11.0341
▁FFDC	-11.0353
▁Writable	-11.0355
fetch	-11.0357
getRemote	-11.0358
Indexed	-11.0362
▁loaded	-11.0362
RESULT	-11.0365
▁1024	-11.0366
Terms	-11.0367
dev	-11.0367
▁reverse	-11.0368
Mouse	-11.0369
▁Batch	-11.037
SPACE	-11.0372
elm	-11.0372
history	-11.0373
kind	-11.0376
▁Cell	-11.0376
vector	-11.0376
month	-11.0377
ident	-11.0377
▁Queue	-11.038
RI	-11.0382
getError	-11.0387
UR	-11.0388
XPath	-11.0388
EDataType	-11.0391
▁Standard	-11.0394
IL	-11.04
comm	-11.0402
▁del	-11.0404
▁bi	-11.0407
▁DTM	-11.0412
QueryParam	-11.0412
contentType	-11.0414
TypeInfo	-11.0419
Coordinates	-11.0424
▁peer	-11.0425
discover	-11.0435
ever	-11.0436
Syntax	-11.0443
▁TRACE	-11.0443
ous	-11.0448
▁fallback	-11.0454
UCH	-11.0454
so	-11.0458
1.0	-11.0459
ServiceName	-11.0459
Animator	-11.0462
59	-11.0465
Draw	-11.0467
toJson	-11.0468
font	-11.047
Decode	-11.0474
Already	-11.0475
SYSTEM	-11.0475
TEMPLATE	-11.0475
Embedded	-11.0475
数	-11.0475
CENTER	-11.0475
eIsSet	-11.0475
Lazy	-11.0476
zero	-11.0477
▁cfg	-11.0491
hasMore	-11.0496
Net	-11.0497
workflow	-11.0497
Atomic	-11.0499
▁bus	-11.0499
appId	-11.05
▁0.0)	-11.0501
▁area	-11.0502
LAST	-11.0508
▁ring	-11.0509
:9:	-11.0511
MB	-11.0514
bl	-11.0517
▁Writer	-11.052
isArray	-11.0521
validation	-11.0525
▁person	-11.0538
▁closure	-11.0539
loc	-11.054
Interfaces	-11.054
▁indexes	-11.0542
▁sin	-11.0544
▁jsonObject	-11.0544
VIEW	-11.0548
QueryResult	-11.055
ai	-11.0554
▁most	-11.0556
formatUrl	-11.0556
▁rf	-11.0566
interface	-11.0566
▁asset	-11.0567
ifier	-11.057
FAILURE	-11.0576
▁occurred	-11.0576
SCHEMA	-11.0577
Jedis	-11.0577
mult	-11.0578
engine	-11.058
tail	-11.0581
evaluate	-11.0581
menu	-11.0581
fire	-11.0585
img	-11.0587
rd	-11.0594
Jcr	-11.0595
EOF	-11.0596
upload	-11.0598
columnName	-11.0599
pointer	-11.0606
(1.0	-11.0613
light	-11.0613
Loaded	-11.0617
ge	-11.0621
▁temporary	-11.0622
Pages	-11.0623
lower	-11.0623
▁inv	-11.0624
▁email	-11.0627
▁segments	-11.0628
getCode	-11.0628
Primary	-11.0635
AccessToken	-11.0638
▁indices	-11.064
▁Single	-11.0641
▁Put	-11.0644
▁sh	-11.0646
bs	-11.0657
▁getS	-11.066
▁bb	-11.0661
▁written	-11.0661
cu	-11.0661
▁replica	-11.0662
eat	-11.0667
Allow	-11.0668
MINUTE	-11.0668
getTotal	-11.0669
▁hi	-11.067
▁Co	-11.0672
Shutdown	-11.0678
Between	-11.0678
LoadBalancer	-11.0678
Placeholder	-11.0678
Rank	-11.0678
CONNECTION	-11.0678
ResourceAsStream	-11.0678
FACTORY	-11.068
PA	-11.068
▁Rest	-11.0681
▁polygon	-11.0682
▁inside	-11.0685
suffix	-11.0686
timestamp	-11.0687
UnsupportedE	-11.0689
WithAnnotations	-11.069
amount	-11.0691
▁visitor	-11.0692
▁Db	-11.0692
Loc	-11.0692
6:	-11.0695
getStyle	-11.0695
=%	-11.0699
none	-11.0701
▁canonical	-11.0705
JavaScript	-11.0709
InMillis	-11.0709
▁DOM	-11.0712
▁expect	-11.0726
▁exchange	-11.0728
CacheKey	-11.0731
ord	-11.0738
NodeData	-11.0747
additional	-11.0754
nn	-11.0755
associate	-11.0765
ERT	-11.0765
Prepare	-11.0768
▁fld	-11.0771
GenericType	-11.0772
Packages	-11.0774
Clean	-11.0775
High	-11.0781
CONFIGURATION	-11.0781
Comparison	-11.0781
TARGET	-11.0781
▁MojoExecution	-11.0781
META	-11.0781
Authority	-11.0782
isPrimitive	-11.0785
Initialized	-11.0785
▁tok	-11.0787
▁angle	-11.0787
math	-11.0791
subject	-11.0792
plus	-11.0793
missing	-11.0793
Notify	-11.0793
NEXT	-11.0794
Ca	-11.0796
Estimate	-11.0796
deploy	-11.0796
63	-11.0797
digit	-11.0797
argument	-11.0799
▁implement	-11.0803
Dim	-11.0804
ng	-11.0805
▁credential	-11.0812
PS	-11.0812
safe	-11.0814
Reporter	-11.0814
ade	-11.0818
▁calling	-11.0822
ian	-11.0823
▁generic	-11.0826
▁interfaces	-11.0828
ou	-11.0828
Spi	-11.0829
▁checked	-11.0836
▁Pdf	-11.0844
Duplicate	-11.0846
VALUES	-11.0852
▁cd	-11.0852
Force	-11.0853
TypeVariable	-11.0855
typeName	-11.0859
Patterns	-11.0863
Removed	-11.0875
ship	-11.0876
Scene	-11.0882
Sq	-11.0883
Sdk	-11.0884
Wrap	-11.0885
BEGIN	-11.0885
Enforcer	-11.0885
▁Otherwise	-11.0885
Deferred	-11.0885
Mock	-11.0886
▁creating	-11.0886
Compression	-11.0886
enclosing	-11.0886
Texture	-11.0887
FacesConfig	-11.089
▁us	-11.0891
▁specific	-11.0895
▁itself	-11.0896
destroy	-11.0896
getDatabase	-11.09
▁cleanup	-11.09
delegate	-11.09
slot	-11.09
groups	-11.0901
=\""	-11.0902
GEN	-11.0903
constructor	-11.0904
getRef	-11.0906
admin	-11.0907
▁jobId	-11.0908
Hour	-11.0909
▁unknown	-11.0921
▁decoded	-11.0922
▁pad	-11.0929
man	-11.093
▁localVar	-11.0932
▁targetClass	-11.0932
getDocument	-11.0935
isFile	-11.0938
▁problem	-11.0939
ChangeListener	-11.0945
▁mv	-11.0947
▁dataset	-11.0948
izer	-11.0952
boot	-11.0953
ler	-11.0953
Visibility	-11.0957
▁databaseName	-11.0958
cv	-11.0959
BIT	-11.096
getBean	-11.0963
▁9	-11.0965
▁named	-11.0972
clientResponse	-11.0981
▁Js	-11.0982
Play	-11.0982
ach	-11.0984
ACL	-11.0984
audio	-11.0989
Volume	-11.099
Temporary	-11.0991
▁leaving	-11.0991
Canvas	-11.0991
gallery	-11.0991
INTERVAL	-11.0991
Keep	-11.0991
DAO	-11.0992
arguments	-11.0993
await	-11.0995
getDeclared	-11.1
▁getObject	-11.1005
("{}	-11.1008
parameterIndex	-11.1009
setRequest	-11.101
56	-11.1013
SequenceNumber	-11.1016
selector	-11.1025
EM	-11.103
▁localName	-11.104
▁getMethod	-11.1057
HttpMethod	-11.1057
▁topology	-11.1065
ErrorMessage	-11.1066
▁partitions	-11.1069
ClientException	-11.1073
▁Parameter	-11.1073
▁middle	-11.1075
setData	-11.1075
Inputs	-11.1077
Caller	-11.1079
▁threads	-11.1082
DOT	-11.1082
SARL	-11.1083
Trie	-11.1087
getLabel	-11.109
Low	-11.1091
▁nested	-11.1091
▁threshold	-11.1095
Compact	-11.1096
Spatial	-11.1097
Dialect	-11.1097
Payment	-11.1097
QR	-11.1101
▁big	-11.1101
getM	-11.1101
Inbound	-11.1105
dot	-11.1105
▁Scope	-11.111
▁difference	-11.1111
Pdf	-11.1113
ump	-11.1115
Mutable	-11.1118
vertex	-11.112
getOffset	-11.1121
DefinitionInner	-11.1132
__0	-11.1135
ather	-11.114
author	-11.1146
▁Protocol	-11.1163
▁addTo	-11.1164
▁rev	-11.1168
rb	-11.1171
Fill	-11.1174
NextToken	-11.1175
▁CmsUUID	-11.1182
ha	-11.1183
▁pe	-11.1186
Ranges	-11.1191
▁{//	-11.1191
▁Don	-11.1192
}",	-11.1196
pn	-11.1201
photo	-11.1204
▁druidG	-11.1205
Datum	-11.1205
Horizontal	-11.1205
Aggregation	-11.1205
TITLE	-11.1205
▁hql	-11.1207
61	-11.1208
OptionRel	-11.1208
▁':'	-11.1208
Many	-11.121
▁managed	-11.1212
Initializer	-11.1213
StartTime	-11.1216
▁dns	-11.1216
▁repeat	-11.1224
OrderBy	-11.1225
▁compressed	-11.1225
symbol	-11.1229
▁side	-11.123
delta	-11.123
Go	-11.123
KeyField	-11.1231
▁EJB	-11.1237
CastException	-11.1241
▁255	-11.1243
track	-11.1244
▁reply	-11.1248
54	-11.1249
▁marker	-11.1252
PropertyType	-11.1254
▁stored	-11.1255
Helpers	-11.1256
success	-11.1257
identity	-11.1262
Evaluator	-11.1264
see	-11.1264
attributeName	-11.1267
Buckets	-11.1269
▁fixed	-11.1274
(".")	-11.1277
Dto	-11.1281
▁Font	-11.1283
▁starting	-11.1285
("/")	-11.1288
getUrl	-11.1293
getChild	-11.1294
(4);	-11.1298
Queries	-11.1302
WebElement	-11.1303
getTimestamp	-11.1306
BOOLEAN	-11.1313
Slash	-11.1313
WEB	-11.1313
LOCATION	-11.1313
Clone	-11.1314
▁finderArgs	-11.1314
mail	-11.1316
Aggregator	-11.1317
Streams	-11.1321
()])	-11.1321
Raster	-11.1324
att	-11.1325
setVisible	-11.1333
WithHeaders	-11.1339
▁millis	-11.1339
refresh	-11.1342
▁Illegal	-11.1343
TODO	-11.1344
Cl	-11.1345
constraint	-11.1346
▁expand	-11.1356
Broker	-11.1356
NT	-11.1358
▁mappings	-11.1361
cut	-11.1362
cos	-11.1366
▁dimensions	-11.1371
▁trying	-11.1374
▁wrapped	-11.1374
getReference	-11.1375
getBody	-11.1375
▁LocalDate	-11.1378
▁audit	-11.1382
ANY	-11.1386
Identifiers	-11.1394
▁jvm	-11.1402
▁inject	-11.1402
▁extensions	-11.1407
features	-11.1409
Slots	-11.141
Backend	-11.1413
Fast	-11.1414
StackTrace	-11.1418
▁dt	-11.1421
▁core	-11.1421
ARGUMENT	-11.1423
Alpha	-11.1423
Gradient	-11.1423
Answer	-11.1423
LABEL	-11.1423
▁'-'	-11.1424
ged	-11.1424
Idle	-11.1426
Updater	-11.1429
DEV	-11.143
JsonObject	-11.143
▁proto	-11.143
▁behavior	-11.1431
);//	-11.1432
Tier	-11.1439
STORE	-11.144
1:	-11.1441
cr	-11.1443
▁inputs	-11.1448
▁coreType	-11.1448
▁greater	-11.1449
53	-11.145
▁Storage	-11.1452
Theme	-11.1453
authentication	-11.1457
getSub	-11.1458
PdfName	-11.1459
▁RemoteException	-11.1459
cannot	-11.1459
▁disabled	-11.1461
"})	-11.1465
iterable	-11.1469
DM	-11.147
▁'\\'	-11.1474
Weights	-11.1475
meter	-11.1479
▁XMLStream	-11.1481
▁pack	-11.1488
▁propName	-11.1491
Corner	-11.1494
▁indexOf	-11.1501
sorted	-11.1505
Triple	-11.151
▁offsets	-11.1511
unmodifiable	-11.152
CommandLine	-11.1525
▁mse	-11.1525
CL	-11.1528
CLOSE	-11.1528
eNotify	-11.1532
Wave	-11.1533
Ajax	-11.1533
multiply	-11.1534
COMMA	-11.1534
TRANSACTION	-11.1534
BetaApi	-11.1534
39	-11.1535
Preview	-11.1536
▁UTF	-11.1538
▁Atlas	-11.1539
getAction	-11.1545
▁coll	-11.1545
▁platform	-11.1548
annotationType	-11.156
▁scheduler	-11.1561
cmp	-11.1561
Dns	-11.1568
Serializable	-11.157
TRACE	-11.157
setTime	-11.1574
ACC	-11.1579
NoSuchMethod	-11.1579
isInstance	-11.1579
Stored	-11.158
Locations	-11.158
Router	-11.1585
getAddress	-11.1588
42	-11.1591
▁Timer	-11.1593
▁Atom	-11.1595
▁receive	-11.1595
getRow	-11.1597
PM	-11.1598
Bo	-11.1601
LF	-11.1606
>>>>()	-11.1607
bi	-11.1608
▁precision	-11.1615
PAREN	-11.1616
▁reg	-11.1617
▁native	-11.1621
▁ws	-11.1625
▁finished	-11.1627
Vpc	-11.1628
DT	-11.1631
dep	-11.1633
▁NEXT	-11.1636
Recovery	-11.164
Under	-11.1642
setString	-11.1642
Coding	-11.1645
▁clusters	-11.1646
CONTROL	-11.1647
compound	-11.1647
Ledger	-11.1647
Activation	-11.1647
LINK	-11.1647
Adjustment	-11.1647
▁ms	-11.1647
Literals	-11.1648
Arc	-11.1648
Eval	-11.1648
RequestBuilder	-11.1649
putIfAbsent	-11.1651
CSS	-11.1653
▁handled	-11.1654
XAResource	-11.1655
serve	-11.1657
getTypeName	-11.1662
▁AND	-11.1663
})	-11.1665
▁Ifc	-11.1666
Sender	-11.1669
▁Now	-11.1678
▁cols	-11.1678
Chronology	-11.1687
▁la	-11.1689
isEvent	-11.169
shared	-11.1692
▁BpsimPackage	-11.1694
addAttribute	-11.1697
Attrs	-11.1699
alg	-11.1705
isTrace	-11.1707
▁provide	-11.1715
▁roles	-11.1721
▁Serializable	-11.1724
predicate	-11.1731
VE	-11.1731
Flat	-11.1734
ARG	-11.1737
▁strip	-11.1738
readObject	-11.1743
Hours	-11.1744
FLAG	-11.1751
Grant	-11.1752
▁dispatch	-11.1756
▁App	-11.1758
Thrift	-11.176
TierPriceEntry	-11.176
OPERATION	-11.176
▁anything	-11.176
▁Graph	-11.1761
baseUrl	-11.1762
preferred	-11.1762
Leaf	-11.1762
rm	-11.1765
setParent	-11.1766
▁actually	-11.1768
Restore	-11.1776
Buffers	-11.1781
▁persist	-11.1784
Mac	-11.1787
getJob	-11.1789
ServiceInterface	-11.1796
▁currentNode	-11.1799
▁prevent	-11.18
▁handlers	-11.1801
BoundingBox	-11.1801
▁gauge	-11.1801
delay	-11.1803
external	-11.1803
▁collector	-11.1808
jdbc	-11.1809
unique	-11.1814
named	-11.1815
▁Remote	-11.1816
singleton	-11.1816
▁launch	-11.1817
Ticket	-11.1826
Counts	-11.1828
Templates	-11.1828
openConnection	-11.1831
("\"	-11.1836
UserId	-11.184
Connected	-11.1843
getN	-11.1845
LastModified	-11.185
99	-11.1863
STR	-11.1866
ElementType	-11.1866
gene	-11.1868
▁img	-11.1874
▁Callable	-11.1874
Popup	-11.1875
Explicit	-11.1875
▁how	-11.1875
Coord	-11.1876
Exact	-11.1876
phoneNumber	-11.1877
ward	-11.1879
NAMESPACE	-11.1879
eq	-11.1881
MILLIS	-11.1882
Utf	-11.1883
Signal	-11.1883
CREATED	-11.1886
AtomContainer	-11.1895
▁fast	-11.1897
ApiKey	-11.1898
direction	-11.1902
▁exceptions	-11.1904
ras	-11.1906
ft	-11.1912
closed	-11.1913
readResource	-11.1918
▁repo	-11.1918
jj	-11.192
account	-11.1921
Issuer	-11.1923
failure	-11.1924
bond	-11.1929
▁bootstrap	-11.1945
▁io	-11.1947
coords	-11.1947
▁Utility	-11.195
▁Module	-11.195
wd	-11.1952
Descriptors	-11.1953
▁buffers	-11.1956
Tran	-11.1965
cat	-11.1965
Plain	-11.1966
▁own	-11.1967
Relative	-11.1981
exc	-11.1982
▁CommandLine	-11.1982
▁thrown	-11.1983
EX	-11.1983
Book	-11.1984
Recursive	-11.1989
Machine	-11.199
df	-11.1991
EXPRESSION	-11.1991
Reliability	-11.1991
QUOTE	-11.1991
▁something	-11.1991
EXTENSION	-11.1992
FOLDER	-11.1992
Routing	-11.1992
▁annotated	-11.1992
CommerceDiscount	-11.1992
SIGN	-11.1994
css	-11.1997
▁itr	-11.2
RESULTS	-11.2003
▁choice	-11.2003
▁authorization	-11.2006
sessionId	-11.2008
Notation	-11.201
▁alert	-11.201
▁rb	-11.2015
PK	-11.2023
▁Start	-11.2029
▁checking	-11.203
getChannel	-11.2031
▁declaration	-11.2033
Po	-11.2034
dom	-11.2043
bottom	-11.2044
registry	-11.2044
getEvent	-11.2046
~	-11.2048
Insn	-11.2052
▁extended	-11.2059
!",	-11.2064
Was	-11.2076
▁loading	-11.2094
isStatic	-11.2096
Aggregate	-11.2096
Enumeration	-11.21
Breakpoint	-11.2104
amp	-11.2105
mc	-11.2105
▁Script	-11.2106
98	-11.2107
▁rollback	-11.2107
Physical	-11.2107
Serial	-11.2108
PORT	-11.2108
▁occur	-11.2109
IGNORE	-11.2109
PACKAGE	-11.2109
SDK	-11.2109
Initialization	-11.211
CDK	-11.2111
mem	-11.2111
logp	-11.2113
ApiException	-11.2113
▁writeW	-11.2114
▁eval	-11.2115
setSelected	-11.2115
▁commands	-11.2117
▁rm	-11.2124
Quote	-11.2124
▁known	-11.2132
▁Supplier	-11.2132
NetworkInterface	-11.2136
Bin	-11.2141
EndPoint	-11.2141
▁pkg	-11.2143
▁15	-11.2144
▁Parameterized	-11.2148
KeyStore	-11.215
plain	-11.2154
▁drop	-11.2164
scroll	-11.2166
running	-11.2167
ithIndent	-11.2171
Encode	-11.2174
85	-11.2175
","	-11.2178
Binder	-11.2181
76	-11.2182
▁via	-11.2183
exiting	-11.2184
▁Only	-11.2194
▁hit	-11.2196
keyword	-11.2197
soft	-11.2198
></	-11.221
cn	-11.2212
Sig	-11.2216
SecurityGroup	-11.2217
▁On	-11.222
Construct	-11.2224
▁tables	-11.2224
Tracing	-11.2225
getSchema	-11.2226
CommonTree	-11.2226
ANNOTATION	-11.2228
DeclaringClass	-11.2228
EXCEPTION	-11.2228
Maybe	-11.2228
DDRM	-11.2228
BEAN	-11.2229
Injector	-11.223
="+	-11.2232
CASE	-11.2236
diag	-11.2236
▁closest	-11.2238
getLanguage	-11.2239
▁"\""	-11.2241
fp	-11.2242
▁fromIndex	-11.2244
▁subscriber	-11.2244
▁emit	-11.2249
▁sigma	-11.2251
FL	-11.2255
getRuntime	-11.226
Monitoring	-11.2261
hex	-11.2263
EntityMetadata	-11.2263
▁invalidate	-11.2263
▁200	-11.2266
▁bad	-11.2268
DESC	-11.227
▁transfer	-11.227
▁fl	-11.227
ToFile	-11.2273
PackageName	-11.2277
FA	-11.2282
▁edges	-11.2282
PolicyRequest	-11.2284
▁See	-11.2285
▁perm	-11.2288
▁discard	-11.2288
▁duplicate	-11.2289
assert	-11.229
strict	-11.2291
ending	-11.2291
▁Span	-11.2293
▁sep	-11.2297
▁DMatrixRMaj	-11.2297
▁tp	-11.2298
▁First	-11.23
DataStore	-11.23
▁setValue	-11.2303
▁Tango	-11.2308
▁Sequence	-11.2311
newLine	-11.2313
spi	-11.2314
down	-11.2315
▁recovery	-11.232
Qualified	-11.2325
▁conditions	-11.2325
Functions	-11.2327
fmt	-11.233
▁numeric	-11.2332
Mo	-11.234
using	-11.2344
getDimension	-11.2346
hadoop	-11.2349
HOST	-11.2349
Must	-11.2349
Plus	-11.2349
setCurrent	-11.2349
REMOVE	-11.2349
Unavailable	-11.2353
('\	-11.2355
ceil	-11.2355
▁digit	-11.2357
▁really	-11.2358
("\""	-11.236
lines	-11.2362
ML	-11.2363
AST	-11.2363
BL	-11.2364
Probe	-11.2365
eval	-11.2369
▁ModelNode	-11.237
▁Media	-11.237
dataset	-11.2371
▁many	-11.2371
ChangeEvent	-11.2377
▁getService	-11.2379
getSymbol	-11.2382
▁NAME	-11.2389
oid	-11.2389
player	-11.2393
▁tokenizer	-11.2393
▁Parser	-11.24
97	-11.2402
2>	-11.2405
▁sink	-11.2407
shift	-11.2415
environment	-11.2415
example	-11.2416
▁closing	-11.2419
dump	-11.2429
asString	-11.2437
▁hostname	-11.2437
▁CPDefinition	-11.2444
MXBean	-11.2445
▁rotate	-11.2446
▁NoSuchMethod	-11.2451
▁Partition	-11.2451
_8)	-11.2452
creat	-11.2452
NotEmpty	-11.2454
(",")	-11.2455
▁injector	-11.2463
pack	-11.2464
1=	-11.2465
methods	-11.2466
Cap	-11.2466
classLoader	-11.2466
▁vm	-11.2468
WORD	-11.2469
▁Lock	-11.247
Sketch	-11.2471
Synchronization	-11.2471
Upgrade	-11.2471
▁EFapsException	-11.2471
Round	-11.2471
filePath	-11.2471
abort	-11.2471
generated	-11.2473
Exec	-11.2473
ZIP	-11.2474
da	-11.2475
▁their	-11.2476
▁connector	-11.2476
▁submit	-11.2477
Expired	-11.2478
Exist	-11.248
onError	-11.2481
▁below	-11.2483
InternalSARL	-11.2486
▁bug	-11.2493
executeQuery	-11.2494
nodeName	-11.2494
Updated	-11.2496
stat	-11.2498
Health	-11.2505
Ast	-11.2509
Formats	-11.251
getOptions	-11.2513
UL	-11.2519
HttpResponse	-11.2521
EE	-11.2521
Grammar	-11.2522
TextField	-11.2522
▁Condition	-11.2523
subscription	-11.2527
▁clientResponse	-11.2527
▁shard	-11.2532
getFormatted	-11.2535
ber	-11.2537
▁klass	-11.2537
sin	-11.2538
FROM	-11.254
signature	-11.2541
▁pEntity	-11.2541
▁records	-11.2542
agent	-11.2544
▁xa	-11.2547
▁clock	-11.2549
OT	-11.255
▁jj	-11.2553
▁filtered	-11.2556
▁'/')	-11.2557
▁choose	-11.256
fr	-11.2563
▁getCurrent	-11.2564
drawable	-11.2566
dup	-11.2569
moveTo	-11.2569
FORM	-11.257
▁normalized	-11.2575
ba	-11.2575
getCache	-11.2575
▁nvae	-11.2589
PROCESS	-11.2593
Volt	-11.2593
getSelected	-11.2593
False	-11.2594
Privilege	-11.2594
Alarm	-11.2594
WINDOW	-11.2594
PRIORITY	-11.2594
highLowContainer	-11.2594
VISIBLE	-11.2594
EOL	-11.2594
SCRIPT	-11.2594
FINEST	-11.2595
Compat	-11.2597
▁kind	-11.2599
CLOSED	-11.2601
propName	-11.2604
deserialize	-11.2604
▁country	-11.2605
HttpStatus	-11.2605
▁fos	-11.2609
lazyGet	-11.2609
▁minute	-11.2611
der	-11.2612
▁pixel	-11.2612
tive	-11.2616
Starting	-11.2619
▁reportError	-11.2622
Absolute	-11.2623
inflate	-11.2623
he	-11.2629
errors	-11.2629
Beans	-11.263
▁contentLength	-11.2631
0.0	-11.2631
semantics	-11.2635
isTrue	-11.264
Closure	-11.2641
Tmp	-11.2646
equ	-11.2648
▁WebSocket	-11.2649
IV	-11.265
ear	-11.2651
▁parentNode	-11.2655
sax	-11.2656
("&	-11.2657
▁Primitive	-11.2663
algorithm	-11.2669
87	-11.267
reply	-11.267
loop	-11.2671
static	-11.2671
defined	-11.2672
Then	-11.2674
retry	-11.2674
▁statistics	-11.2679
My	-11.2679
management	-11.2681
JSType	-11.2689
▁enc	-11.2702
InputType	-11.2702
offer	-11.2707
doPrivileged	-11.271
Dispatch	-11.2711
▁Input	-11.2714
Micro	-11.2719
white	-11.2719
Dependent	-11.2719
observable	-11.2719
ALIGN	-11.2719
CmsXmlContent	-11.2719
Possible	-11.2719
▁better	-11.2719
▁Mismatched	-11.2719
▁Trace	-11.2723
tar	-11.2726
Disabled	-11.2727
swing	-11.2728
common	-11.2728
▁references	-11.273
Insets	-11.273
way	-11.2731
▁interceptor	-11.2732
Tools	-11.2732
▁resultSet	-11.2733
notation	-11.2737
Invoker	-11.2743
▁popup	-11.2744
Contain	-11.2747
Acc	-11.2748
▁rhs	-11.2756
projectIdOrPath	-11.2758
RequestMethod	-11.276
nr	-11.276
added	-11.2761
ResponseInner	-11.2765
MPP	-11.2773
:"+	-11.2774
IBond	-11.2785
rand	-11.2787
Reload	-11.2788
addStatement	-11.279
ErrorException	-11.2791
ble	-11.2791
FE	-11.2791
readByte	-11.2794
TYPES	-11.2795
ElementException	-11.2799
getProtocol	-11.2799
▁ResourceBundle	-11.28
DTM	-11.2802
isClosed	-11.2811
caption	-11.2813
Channels	-11.2818
▁incoming	-11.2826
Commands	-11.2829
RequestBody	-11.283
▁errorMessage	-11.2835
:5:	-11.2836
Expand	-11.2837
week	-11.2837
IRI	-11.2838
each	-11.2843
credentials	-11.2844
▁30	-11.2844
note	-11.2845
AUTH	-11.2845
Voice	-11.2845
Percent	-11.2845
CURRENT	-11.2846
SINGLE	-11.2846
Sensitive	-11.2846
population	-11.2846
decorator	-11.2846
▁AssertionError	-11.2846
iFieldSeq	-11.2846
Raid	-11.2846
▁virtualNetwork	-11.2846
ROLE	-11.2847
Directive	-11.2847
▁successfully	-11.2847
▁directly	-11.2848
▁executeDescribe	-11.285
Previous	-11.2851
▁df	-11.2852
insets	-11.2854
Multipart	-11.2854
converter	-11.2856
>0)	-11.2858
recycle	-11.2859
▁qPos	-11.2859
▁So	-11.2859
▁executeGet	-11.2861
▁pm	-11.2862
\":	-11.2866
PARAMETERS	-11.2868
JPA	-11.2869
entities	-11.287
▁under	-11.2872
▁constraints	-11.2873
reg	-11.2874
▁renderer	-11.2876
getApi	-11.2879
▁receiver	-11.2882
putInt	-11.2882
events	-11.2882
▁Counter	-11.2887
OVER	-11.2887
CF	-11.2888
timer	-11.2891
Su	-11.2894
123	-11.2898
getPartition	-11.29
CON	-11.2901
▁httpClient	-11.291
ture	-11.2912
▁'"'	-11.2914
▁solve	-11.2915
finish	-11.2917
▁Box	-11.2918
BufferSize	-11.2922
▁BufferedWriter	-11.2923
gt	-11.2924
▁ordered	-11.2925
AttributeName	-11.2926
Injection	-11.2927
Jdbc	-11.2929
unknown	-11.2931
verify	-11.2932
backup	-11.2932
▁animation	-11.2935
Realm	-11.2937
declared	-11.2937
readOnly	-11.2944
getCluster	-11.2945
▁Open	-11.2947
Mean	-11.2952
numberOf	-11.2952
TimeoutException	-11.2955
pid	-11.2958
SearchResult	-11.2961
▁mg	-11.2961
1.1	-11.2964
▁Immutable	-11.2967
▁cnt	-11.2968
getUri	-11.2969
deviceName	-11.2974
WORK	-11.2974
board	-11.2974
TaxFixedRate	-11.2974
Camera	-11.2974
reject	-11.2974
ALGORITHM	-11.2974
Integration	-11.2974
Lightweight	-11.2974
Elasticsearch	-11.2974
▁every	-11.2974
▁UrlFormatter	-11.2974
▁specify	-11.2974
GrayU	-11.2975
▁runnable	-11.2979
persistence	-11.2979
EDIT	-11.2984
▁detect	-11.2985
▁codec	-11.2986
▁newInstance	-11.2988
vict	-11.299
▁fall	-11.2994
STOP	-11.2994
dy	-11.2995
prepareStatement	-11.2995
getQuery	-11.2998
Prefixes	-11.2998
getExtension	-11.3001
▁HTML	-11.3006
▁inline	-11.3009
▁getP	-11.3009
▁accessToken	-11.3013
▁zipFile	-11.3015
▁'\\	-11.3016
1[	-11.302
▁cons	-11.3021
▁NodeList	-11.3021
▁half	-11.3023
255	-11.3024
subList	-11.3024
▁checkState	-11.3024
▁St	-11.3031
CmsResourceType	-11.3034
▁connected	-11.3038
getRootPath	-11.3046
Parallel	-11.3046
▁crc	-11.3048
38	-11.3051
getContainer	-11.3054
done	-11.3055
EXP	-11.3056
06	-11.3063
MR	-11.3063
Unicode	-11.3063
NN	-11.3065
advance	-11.3071
▁formatted	-11.3071
Minutes	-11.3072
https	-11.3073
▁Cipher	-11.3073
▁scores	-11.3074
▁combine	-11.3074
CPDefinitionId	-11.308
FileUtils	-11.3081
Cols	-11.3082
▁lhs	-11.3088
-"	-11.3095
▁Instantiation	-11.3096
need	-11.3096
▁Extension	-11.3098
55	-11.3098
▁disk	-11.31
Collect	-11.31
▁manifest	-11.3101
Statements	-11.3101
ThreadPool	-11.3102
Fraction	-11.3103
Proposal	-11.3104
GREATER	-11.3104
MAPPING	-11.3104
Abort	-11.3104
Excel	-11.3104
Velocity	-11.3104
ableAltException	-11.3104
AUTO	-11.3104
COMMENT	-11.3104
Alg	-11.3105
▁hold	-11.3107
checkState	-11.3107
▁[%	-11.3109
Dimensions	-11.3109
▁HttpMethod	-11.311
AccessController	-11.3112
PrivilegedAction	-11.3114
getEntry	-11.3119
stamp	-11.312
▁holder	-11.312
predict	-11.3124
writeEnd	-11.3126
▁inter	-11.3126
RSA	-11.3127
getView	-11.3127
▁servletContext	-11.3128
getCount	-11.3128
projectId	-11.3128
▁registration	-11.3129
▁working	-11.3133
Live	-11.3134
▁jsonArray	-11.3134
Dot	-11.314
▁Copy	-11.3142
SuccessResponse	-11.3146
du	-11.3151
▁well	-11.3154
pl	-11.3163
▁currency	-11.3167
getShort	-11.317
▁scheduled	-11.3172
▁numbers	-11.3172
DBID	-11.3175
ht	-11.3175
sep	-11.3177
ServiceInstance	-11.3181
▁SAX	-11.3185
CommercePrice	-11.3189
period	-11.319
("--	-11.3193
Written	-11.3195
EJB	-11.3196
reduce	-11.3196
▁InetAddress	-11.3203
Unsigned	-11.3204
▁probe	-11.3206
▁iterate	-11.3212
▁billingAccount	-11.3212
Vec	-11.3212
▁TYPE	-11.3213
75	-11.3217
▁conversion	-11.3219
columnIndex	-11.3227
▁literal	-11.3227
getMethods	-11.3228
▁envelope	-11.3232
▁"\\	-11.3233
POSITION	-11.3235
PROPERTIES	-11.3235
histogram	-11.3235
取	-11.3235
ANCHOR	-11.3235
alarm	-11.3235
Seen	-11.3235
▁Hashtable	-11.3236
Related	-11.3236
factor	-11.3237
ClassDescriptor	-11.3238
optional	-11.324
Soft	-11.324
▁ImmutableSet	-11.3241
ActionEvent	-11.3242
CPInstance	-11.3242
services	-11.3245
WorkUnit	-11.3249
pending	-11.325
▁NoV	-11.3251
Price	-11.3251
▁bytesRead	-11.3251
WebApp	-11.3253
CheckBox	-11.3253
-1]	-11.3254
PrimaryKey	-11.3259
▁li	-11.3259
Faces	-11.3261
▁lib	-11.3274
mb	-11.3281
▁Signature	-11.3282
▁requires	-11.3282
▁Socket	-11.3286
▁trailing	-11.3287
userId	-11.3288
Sha	-11.3289
Secure	-11.3291
▁Collector	-11.3297
VO	-11.3298
strCommand	-11.3304
("{	-11.3304
getStackTrace	-11.3304
ong	-11.3306
Conditional	-11.3306
▁DataSource	-11.3307
▁stringBuilder	-11.3308
▁boundary	-11.3308
▁VALUE	-11.3309
79	-11.331
setS	-11.3312
▁di	-11.332
▁alluxio	-11.332
▁func	-11.3321
DA	-11.3322
▁jdbc	-11.3324
▁typeName	-11.3325
getPage	-11.3326
▁Test	-11.3327
▁directive	-11.3329
addProperty	-11.3329
▁getType	-11.333
opcode	-11.333
utils	-11.3332
assignment	-11.3336
▁qualifier	-11.3337
0:	-11.3341
AddOn	-11.3341
pkg	-11.3341
▁geom	-11.3341
&&	-11.3343
PathParam	-11.3349
▁vals	-11.3352
dt	-11.3355
Descr	-11.3355
CW	-11.3356
ors	-11.3356
isIn	-11.336
Poll	-11.336
▁projectId	-11.3361
▁propertyValue	-11.3361
▁ty	-11.3364
▁small	-11.3364
Look	-11.3368
Positive	-11.3368
Exclusive	-11.3369
Reverse	-11.3369
Solver	-11.3369
ADDRESS	-11.3369
Bracket	-11.3369
DayOfWeek	-11.3369
Isotope	-11.3369
DELIMITER	-11.3369
Recommendation	-11.3369
SEGMENT	-11.3369
Cpu	-11.3369
Outbound	-11.337
reflect	-11.3371
GrayS	-11.3373
▁xpath	-11.3378
sun	-11.338
▁Binary	-11.3382
95	-11.3383
▁Files	-11.3386
▁expressions	-11.3387
▁evt	-11.3387
ier	-11.339
▁ne	-11.3394
Ordered	-11.3394
agger	-11.3394
dx	-11.3395
cx	-11.3395
exclude	-11.3396
▁workspace	-11.3398
Canonical	-11.34
LOAD	-11.3401
CacheSize	-11.3401
▁minor	-11.3402
▁won	-11.3402
▁signal	-11.3405
CODES	-11.3407
prototype	-11.3413
▁relationship	-11.342
16)	-11.3424
isWhitespace	-11.3425
▁FROM	-11.3427
▁httpRequest	-11.3427
▁saved	-11.3429
Abs	-11.3429
AttributeType	-11.3431
2))	-11.3435
84	-11.3438
asset	-11.3441
▁wrong	-11.3446
TimeUnit	-11.3452
▁bd	-11.3455
▁phase	-11.3462
side	-11.3462
▁library	-11.3463
Contains	-11.3465
visible	-11.3467
▁apiVersion	-11.3467
▁tick	-11.3469
▁OAuth	-11.3472
ern	-11.3472
Assert	-11.3474
▁cat	-11.3475
Hidden	-11.3475
scheme	-11.3475
UserSegmentEntry	-11.3475
screen	-11.3476
high	-11.3477
▁mimeType	-11.348
()[0]	-11.348
▁cpDefinition	-11.3484
▁PrintStream	-11.3487
▁summary	-11.3488
EQUAL	-11.3489
Maximum	-11.3491
JSONArray	-11.3494
modifiers	-11.3496
mean	-11.3496
Upper	-11.3497
://"	-11.3497
▁Term	-11.35
VirtualMachine	-11.35
marker	-11.35
▁coordinates	-11.3501
▁unregister	-11.3502
repo	-11.3503
Executors	-11.3503
terminate	-11.3503
Ascii	-11.3504
Representation	-11.3504
WAIT	-11.3504
privilege	-11.3504
Photo	-11.3504
Reservation	-11.3504
▁associated	-11.3504
ind	-11.3506
Weak	-11.3508
Associated	-11.351
Xid	-11.3512
▁cycle	-11.3515
FLAGS	-11.3515
Func	-11.3518
▁"-"	-11.352
ttl	-11.3525
▁pred	-11.3531
PL	-11.3536
Datastore	-11.3536
defaultValue	-11.3539
used	-11.354
▁TimeZone	-11.3544
▁fraction	-11.3553
border	-11.3559
▁Plugin	-11.3559
pad	-11.356
-8	-11.356
▁orderBy	-11.3561
▁Converter	-11.3561
URISyntax	-11.3566
▁mol	-11.3567
redis	-11.3573
Dec	-11.3576
▁Auth	-11.3576
▁encoder	-11.3589
▁instanceId	-11.3592
CD	-11.3592
▁Artifact	-11.3595
▁ranges	-11.36
▁CSS	-11.3603
▁groupName	-11.3607
HttpHeaders	-11.3607
▁fis	-11.3608
JavaType	-11.361
▁jobName	-11.3612
TypeDesc	-11.3613
selection	-11.3614
-1;	-11.3615
panel	-11.3615
principal	-11.3616
progress	-11.3616
adaptor	-11.3616
depth	-11.3616
▁problems	-11.3623
▁cli	-11.363
▁Select	-11.363
Devices	-11.3631
IgnoreCase	-11.3634
Offsets	-11.3634
▁large	-11.3638
▁remain	-11.364
translation	-11.3641
Cardinality	-11.3641
consistent	-11.3641
▁consider	-11.3641
hidden	-11.3641
Implicit	-11.3641
MIME	-11.3641
balance	-11.3641
incrementAndGet	-11.3641
Wire	-11.3642
(':')	-11.3643
Divider	-11.3644
▁downstream	-11.3645
gram	-11.3645
fn	-11.3649
Samples	-11.3651
Now	-11.3652
▁calls	-11.3652
▁Link	-11.3653
ClassDoc	-11.3656
▁waitFor	-11.3657
Pref	-11.3659
▁parameterTypes	-11.366
▁Progress	-11.3661
▁hasNext	-11.3662
▁deriv	-11.3671
Author	-11.3674
▁fit	-11.3679
:"))	-11.368
share	-11.368
▁zoom	-11.3682
▁Pool	-11.3686
▁currentValue	-11.3688
Checkpoint	-11.3689
▁lv	-11.3691
statementBuilder	-11.3696
parseDouble	-11.3698
leader	-11.3698
dataSource	-11.3699
getHeaders	-11.37
▁trim	-11.3703
getMetaData	-11.3704
AWS	-11.3708
getRepository	-11.3711
("^	-11.3712
▁entityClass	-11.3713
▁promise	-11.3716
Ret	-11.3718
▁Call	-11.3719
mit	-11.3719
getToken	-11.3721
▁weights	-11.3724
inv	-11.373
▁rect	-11.3736
▁WHERE	-11.3737
▁en	-11.3737
ops	-11.3737
▁sa	-11.374
Modules	-11.3743
sheet	-11.3744
getOrder	-11.3745
▁baos	-11.3747
▁"&	-11.3749
assign	-11.3751
orig	-11.3755
clean	-11.3756
getResourceType	-11.3757
eventType	-11.3758
Ldap	-11.3758
secret	-11.3758
▁dataType	-11.3758
break	-11.376
readLong	-11.3762
getFeature	-11.3763
hasText	-11.3763
▁indicate	-11.3763
▁users	-11.3764
detail	-11.3766
accessToken	-11.3767
eSet	-11.3768
▁handshake	-11.3768
51	-11.3768
ClickListener	-11.3769
VAL	-11.377
▁getFile	-11.3772
intersect	-11.3773
FullName	-11.3773
▁Run	-11.3777
getDestination	-11.3778
MOVE	-11.3779
BODY	-11.378
▁enough	-11.378
▁equivalent	-11.378
▁supplied	-11.378
Capabilities	-11.378
INSERT	-11.378
LANGUAGE	-11.378
Preparation	-11.378
suppress	-11.378
AFTER	-11.378
terminal	-11.378
maven	-11.378
Verification	-11.378
Caption	-11.378
Err	-11.3781
Self	-11.3781
Hub	-11.3782
Heap	-11.3783
respond	-11.3783
▁reached	-11.3784
▁sessionId	-11.3785
XExpression	-11.3786
sig	-11.3786
▁sig	-11.3786
▁transformation	-11.3786
▁ratio	-11.3787
ejb	-11.3788
SIErrorException	-11.3788
initialized	-11.3793
▁resize	-11.3795
art	-11.3797
▁sheet	-11.3798
▁batchSize	-11.3799
[5]	-11.38
▁ldap	-11.3803
▁Conversion	-11.3803
▁virtual	-11.3804
["	-11.3807
getCommand	-11.3807
filters	-11.381
TypeArguments	-11.3811
Characters	-11.3812
mitted	-11.3814
Validity	-11.3815
hostname	-11.3815
millis	-11.3819
▁Scriptable	-11.3821
-8"));	-11.3821
Once	-11.3826
▁longer	-11.3826
▁Join	-11.3836
▁taskId	-11.3837
▁Bad	-11.3839
urn	-11.3842
sure	-11.3844
▁IAtomContainer	-11.3846
QueryBuilder	-11.3848
setInt	-11.3856
ification	-11.3857
▁Auto	-11.3863
("#	-11.3865
currentTime	-11.3865
inf	-11.3868
mgr	-11.3872
▁utils	-11.3872
▁getParent	-11.3873
▁completion	-11.3874
quality	-11.3874
compose	-11.3877
▁Null	-11.3877
▁adding	-11.3883
ListItem	-11.3884
getURI	-11.3884
]]	-11.3885
resourceName	-11.3888
disable	-11.3889
▁modules	-11.389
ATT	-11.389
Assign	-11.3894
▁mem	-11.3899
Hit	-11.3902
findFirst	-11.3902
platform	-11.3903
authorization	-11.3903
delimiter	-11.3904
radius	-11.3904
orderBy	-11.3904
cleanup	-11.3904
exchange	-11.3904
structure	-11.3906
archive	-11.3907
SetException	-11.391
getModule	-11.3912
FX	-11.3917
Inject	-11.3917
▁warning	-11.3919
▁help	-11.392
ASCII	-11.392
DEVICE	-11.392
POSITIVE	-11.392
Question	-11.392
Decorator	-11.392
RUNNING	-11.392
thrift	-11.392
detach	-11.3921
Simulation	-11.3921
▁SortedSet	-11.3921
Quota	-11.3921
margin	-11.3921
Accumulator	-11.3922
retain	-11.3922
74	-11.3925
▁streams	-11.3926
▁terms	-11.3929
training	-11.393
addHeader	-11.3931
▁catalog	-11.3933
basePath	-11.3937
▁wave	-11.394
▁paramTypes	-11.394
▁ab	-11.3941
▁Generate	-11.3942
▁allocate	-11.3955
▁encrypt	-11.3956
Logical	-11.3957
trie	-11.396
▁calc	-11.396
▁around	-11.3963
rad	-11.3967
Interior	-11.3969
SSH	-11.397
InstanceId	-11.3973
CALL	-11.3975
▁rpc	-11.3977
PersistenceUnit	-11.398
▁Ap	-11.3982
EXT	-11.3984
RB	-11.3986
sToRemove	-11.3988
▁retValue	-11.3991
csv	-11.3992
BlockSize	-11.3992
nonce	-11.3992
mix	-11.3996
▁heap	-11.3997
MQ	-11.4
Endpoints	-11.4002
▁hook	-11.4007
Views	-11.4011
PT	-11.4017
setup	-11.4017
IPv	-11.4018
InstanceGroup	-11.402
▁datastore	-11.4022
▁logging	-11.4024
bp	-11.4026
RDF	-11.4026
AP	-11.4027
created	-11.4028
▁rv	-11.403
▁accumulator	-11.4038
zk	-11.4041
alert	-11.4042
▁Closeable	-11.4043
▁gc	-11.4045
Subscribe	-11.4046
catalog	-11.405
kernel	-11.405
writeLong	-11.4052
▁Pointer	-11.4052
Align	-11.4052
Criterion	-11.4053
▁revision	-11.4055
▁MediaType	-11.4056
/%	-11.4056
adapter	-11.4057
SecurityGroups	-11.4059
LOW	-11.406
master	-11.406
CB	-11.4061
MARK	-11.4062
METRIC	-11.4063
FETCH	-11.4063
Power	-11.4063
Correct	-11.4063
Destroy	-11.4063
Historic	-11.4063
Bridge	-11.4063
Heartbeat	-11.4063
Margin	-11.4063
PRIVATE	-11.4063
Vertices	-11.4063
longitude	-11.4063
horizontal	-11.4063
Outcome	-11.4063
Durable	-11.4063
AndReleaseTask	-11.4063
Pull	-11.4064
▁coordinate	-11.4065
NotSupported	-11.4067
throwable	-11.4069
UpperBound	-11.4072
▁jsonGenerator	-11.4074
Soap	-11.4074
▁ImmutableMap	-11.4076
▁DATA	-11.4078
▁reload	-11.4081
changed	-11.4083
vars	-11.4085
▁fieldType	-11.4085
elementAt	-11.4086
DBIDs	-11.4088
AutoCommit	-11.4094
JCR	-11.4096
Participant	-11.4099
▁GitLabApi	-11.4101
▁tran	-11.4101
INF	-11.4102
Precision	-11.4106
AndGet	-11.4108
commerceDiscount	-11.4111
Reading	-11.4114
ServiceReference	-11.4115
▁pause	-11.4116
Needed	-11.4117
▁getField	-11.4118
▁Network	-11.412
JAR	-11.4121
ient	-11.4125
+1)	-11.4131
pin	-11.4137
08	-11.414
▁packages	-11.4142
QName	-11.4146
▁cookies	-11.4147
▁video	-11.415
▁guess	-11.4151
▁buckets	-11.4158
train	-11.4161
getVariable	-11.4163
▁fully	-11.4165
DataPoint	-11.4165
HtmlTag	-11.4174
atoms	-11.4178
DataOutputStream	-11.4179
Attachments	-11.4181
marshal	-11.4182
LEN	-11.4183
▁sender	-11.4185
Phrase	-11.4185
toURI	-11.4188
▁Compute	-11.419
help	-11.4191
getDisplayName	-11.4192
Trust	-11.4194
getLeft	-11.4194
Big	-11.4195
Compile	-11.4196
extra	-11.4199
getScheme	-11.42
Rectangle	-11.4201
Series	-11.4201
fetchBy	-11.4202
▁Flow	-11.4203
dynamic	-11.4203
▁sys	-11.4204
80)	-11.4204
▁metaData	-11.4204
PropertyValue	-11.4206
Messaging	-11.4207
BINARY	-11.4208
Front	-11.4208
rvOrm	-11.4208
Milliseconds	-11.4208
Rotation	-11.4208
▁handling	-11.4208
Console	-11.4208
subtract	-11.4208
UOW	-11.4208
Spliterator	-11.4208
Compatible	-11.4209
Calculator	-11.4209
WsByteBuffer	-11.4209
purge	-11.4209
Thing	-11.421
plan	-11.421
Adding	-11.4213
getNew	-11.4214
cols	-11.4217
rep	-11.4217
FT	-11.4218
decrypt	-11.4219
gml	-11.422
stage	-11.4221
PID	-11.4221
InProgress	-11.4226
initialValue	-11.4228
▁NOTE	-11.423
▁getUser	-11.423
▁symbols	-11.4231
Vfs	-11.4235
emit	-11.424
subscribe	-11.4246
▁cx	-11.4249
Predicates	-11.425
▁serial	-11.425
▁QName	-11.4255
_1);	-11.4256
▁le	-11.4258
character	-11.4258
▁blockSize	-11.426
Fn	-11.4262
Pack	-11.4262
compatible	-11.4265
▁interpreter	-11.4266
StartIndex	-11.4268
("/"	-11.427
tim	-11.4274
▁accessor	-11.4284
enum	-11.4286
getNodeName	-11.429
▁converted	-11.4292
writeStart	-11.4301
Keywords	-11.4303
None	-11.4303
ArrayIndex	-11.4304
fold	-11.4308
Cross	-11.431
FFFF	-11.4313
Indexable	-11.4313
▁outputFile	-11.4314
▁dfs	-11.4315
▁getSession	-11.4319
AtIndex	-11.4322
TypeEClass	-11.4326
▁interrupted	-11.4329
rest	-11.4332
▁byteBuffer	-11.4333
SyntaxException	-11.4336
RED	-11.4338
MessageType	-11.4339
▁admin	-11.434
dispatch	-11.4342
upper	-11.4351
▁sourceFile	-11.4352
displayName	-11.4354
consistency	-11.4355
SCALE	-11.4355
truncate	-11.4355
Discard	-11.4356
storm	-11.4356
▁'\''	-11.4356
Verify	-11.4356
NEWLINE	-11.4356
Moment	-11.4356
MessagingEngine	-11.4356
EFERRED	-11.4356
OrWhitespace	-11.4357
LOGICAL	-11.4357
CWSI	-11.4358
waitFor	-11.436
▁restart	-11.4361
getCanonicalPath	-11.4361
Aliases	-11.4363
▁leaf	-11.4364
foo	-11.4364
▁patch	-11.4366
doclet	-11.4367
▁Xbase	-11.4367
▁nm	-11.4368
▁Reader	-11.437
SAXException	-11.4373
}")	-11.4374
ForTest	-11.4374
berOfObjectives	-11.4374
Union	-11.4378
Crypto	-11.4383
▁XPath	-11.4383
▁Unsupported	-11.4383
Rec	-11.4386
xen	-11.4386
Directories	-11.4387
▁appendable	-11.4388
▁ba	-11.439
JobExecution	-11.4394
getting	-11.4398
▁adapt	-11.4401
apiKey	-11.4405
async	-11.4406
Sep	-11.4407
▁Address	-11.4408
entering	-11.4415
▁pairs	-11.4416
▁annotationType	-11.442
▁included	-11.4421
Generation	-11.4422
+1);	-11.4422
Tax	-11.4423
▁OWL	-11.4427
▁HttpRequest	-11.4427
▁fp	-11.4428
▁services	-11.443
▁"="	-11.4432
▁"0"	-11.4433
baseDir	-11.444
BS	-11.4447
▁WebApplication	-11.4448
▁INode	-11.4449
▁sending	-11.4452
▁Grid	-11.4459
lr	-11.4459
04	-11.4462
▁tenant	-11.4463
▁locked	-11.4467
Outline	-11.4474
/2	-11.4474
Share	-11.4483
]*	-11.4484
▁sources	-11.4491
pk	-11.4491
crypt	-11.4491
Attach	-11.4494
setTarget	-11.4495
seg	-11.4499
deliver	-11.4499
▁rotation	-11.4501
messaging	-11.4504
Promise	-11.4504
Guard	-11.4504
INITIAL	-11.4505
Mojo	-11.4505
STATIC	-11.4505
Cassandra	-11.4505
BOUND	-11.4505
SECURITY	-11.4505
Skipped	-11.4505
Business	-11.4505
一	-11.4505
PROTOCOL	-11.4505
Touch	-11.4505
Parm	-11.4505
Transient	-11.4505
▁secret	-11.4505
Observable	-11.4506
pixel	-11.4506
▁td	-11.4507
▁JspException	-11.4507
FLOW	-11.451
relative	-11.451
True	-11.451
Analyzer	-11.451
▁MIN	-11.4511
bitmap	-11.4512
▁click	-11.4516
▁executeList	-11.452
ToInt	-11.4523
ipped	-11.4525
▁ByteBuf	-11.4531
There	-11.4531
VAR	-11.4532
graphic	-11.4533
▁unsetresource	-11.4534
▁wildcard	-11.4535
▁validator	-11.4536
RPC	-11.4538
pd	-11.4541
▁UIComponent	-11.4542
getDevice	-11.4545
BC	-11.4545
We	-11.4551
TION	-11.4554
EntityId	-11.4556
][0]	-11.4557
▁endTime	-11.456
▁ancestor	-11.4567
ctor	-11.4569
mol	-11.4569
▁acl	-11.457
▁3,	-11.4572
getMain	-11.4578
preview	-11.4582
Seed	-11.4585
▁"1:	-11.4587
▁seg	-11.4588
▁actions	-11.4591
Pixels	-11.4593
ToLong	-11.4596
▁Virtual	-11.4597
▁extend	-11.4604
Customer	-11.461
rollback	-11.461
VER	-11.4613
▁writing	-11.462
outputDir	-11.4621
▁dao	-11.4621
isInterface	-11.4621
SourceFile	-11.4624
Expiration	-11.4624
▁anno	-11.4626
crl	-11.4633
DefaultValue	-11.4638
▁gson	-11.4639
▁plus	-11.4641
Detect	-11.4642
Square	-11.4643
CommerceOrder	-11.4643
retrieve	-11.4646
▁creation	-11.4653
Purchase	-11.4655
Artwork	-11.4656
Discriminator	-11.4656
exclusive	-11.4656
suggest	-11.4656
▁multiplier	-11.4656
、	-11.4656
TIMESTAMP	-11.4656
deprecation	-11.4656
WEEK	-11.4656
分	-11.4656
Paragraph	-11.4656
▁initialization	-11.4657
▁probably	-11.4657
(0.0	-11.4658
Interaction	-11.4659
compress	-11.4659
▁corresponding	-11.466
ByResourceGroup	-11.466
`	-11.466
CHANGED	-11.466
could	-11.4662
commonspec	-11.4665
▁oid	-11.4666
Cnt	-11.4666
▁minutes	-11.4668
helper	-11.467
▁clause	-11.4672
hdr	-11.4675
executeUpdate	-11.4677
▁There	-11.4677
▁IP	-11.4678
MessageFormat	-11.4679
▁writeString	-11.4681
▁norm	-11.4682
▁OS	-11.4685
FieldDescriptor	-11.4686
SecretKey	-11.4689
▁ready	-11.4689
9:	-11.469
going	-11.4693
TaskStatus	-11.4694
▁findAll	-11.4696
▁Injection	-11.4701
was	-11.4701
▁mVisitor	-11.4703
MA	-11.4708
jcr	-11.471
Too	-11.4713
Normal	-11.4716
HttpServer	-11.4717
▁FieldInfo	-11.4718
mot	-11.4718
mutation	-11.4719
setHeader	-11.4732
▁SP	-11.4732
▁Store	-11.4733
("-"	-11.4733
▁plain	-11.4734
▁objectClass	-11.4738
▁statusCode	-11.4739
▁mapped	-11.4743
▁stopped	-11.4744
▁{@	-11.4748
▁neighbor	-11.4749
DefinitionId	-11.4749
OrBuilder	-11.475
▁FileWriter	-11.4754
JavaClass	-11.4755
▁ce	-11.476
▁corner	-11.476
▁Skip	-11.4761
timeZone	-11.4764
NextOptions	-11.4767
allowed	-11.4771
addElement	-11.4771
norm	-11.4777
▁pageContext	-11.4778
COM	-11.478
OptionValue	-11.4785
▁bp	-11.4787
entityType	-11.4788
TOP	-11.4789
sendMessage	-11.479
CM	-11.4795
Wildcard	-11.4795
▁Persistence	-11.4798
▁absolute	-11.4798
ency	-11.48
▁da	-11.4802
declaring	-11.4803
JobId	-11.4804
HealthCheck	-11.4806
concurrent	-11.4806
FACTOR	-11.4807
Compilation	-11.4809
follow	-11.4809
▁decimal	-11.481
Balance	-11.481
ASCENDING	-11.481
Descendant	-11.481
Facade	-11.481
▁appropriate	-11.481
Tensor	-11.481
Summaries	-11.481
propagate	-11.481
IMPORT	-11.481
JDK	-11.481
embed	-11.4811
LESS	-11.4811
HASH	-11.4811
Factories	-11.4812
({"	-11.4814
Dirty	-11.4814
▁buffered	-11.4814
ErrorHandler	-11.4815
ATOR	-11.4815
generic	-11.4816
▁Interval	-11.4816
blk	-11.4816
▁runner	-11.4816
binary	-11.4818
literal	-11.4819
Instantiation	-11.482
NL	-11.4821
operator	-11.4821
▁reserved	-11.4821
origin	-11.4822
deleted	-11.4824
grpc	-11.4828
Opcode	-11.4828
getTransaction	-11.4828
1024	-11.4829
▁oos	-11.4829
StrLen	-11.483
kam	-11.4832
numBytes	-11.4837
getColumns	-11.4838
Pub	-11.4839
srcOffset	-11.4842
Statistic	-11.4844
Configure	-11.4857
▁Unicode	-11.4858
▁peek	-11.486
getDomain	-11.4862
▁Bits	-11.4863
tok	-11.4864
REF	-11.4865
SitePath	-11.4868
ipv	-11.4869
▁lambda	-11.4874
▁association	-11.4876
Warnings	-11.4877
hose	-11.4878
▁escaped	-11.4878
Namespaces	-11.4881
Frames	-11.4881
▁detail	-11.4883
JM	-11.4884
flag	-11.4886
ToIndex	-11.4887
Enclosing	-11.4891
KeyPair	-11.4892
▁decoder	-11.4893
▁Dependency	-11.4895
Whitespace	-11.4898
getPackageName	-11.4899
userName	-11.4905
bucketName	-11.4914
aliases	-11.4918
StatusCode	-11.4921
PropertyKey	-11.4921
EST	-11.4923
nu	-11.4931
▁latest	-11.4934
ActionListener	-11.4937
▁6)	-11.4938
ln	-11.4938
cpu	-11.4939
Placement	-11.494
▁40	-11.4942
getPayload	-11.4946
▁10)	-11.4948
LogLevel	-11.4956
TP	-11.4956
OPTION	-11.4957
▁fr	-11.4958
jobId	-11.4965
70	-11.4966
traverse	-11.4966
foreign	-11.4966
IfNecessary	-11.4966
isotope	-11.4966
Negotiator	-11.4966
SIGNATURE	-11.4966
occurrence	-11.4966
Longitude	-11.4966
Lexer	-11.4966
▁Calculate	-11.4966
▁modification	-11.4966
Toolbar	-11.4967
trimmed	-11.4967
RandomAccessFile	-11.4967
bookmark	-11.4967
▁cm	-11.4967
struct	-11.4967
▁slash	-11.4968
bool	-11.4968
▁treat	-11.4968
▁FS	-11.497
Continue	-11.4971
restore	-11.4972
▁SIConnection	-11.4973
BeanDefinition	-11.4974
dfs	-11.4975
Para	-11.4975
det	-11.4975
▁vec	-11.4976
▁browser	-11.4978
heckReturnValue	-11.4979
▁END	-11.4979
▁had	-11.498
execution	-11.498
dimension	-11.498
cipher	-11.4981
modified	-11.4982
Editable	-11.4982
5:	-11.4984
deactivate	-11.4985
▁Graphics	-11.499
▁beanName	-11.4992
prime	-11.4995
vec	-11.4995
ame	-11.4998
▁EList	-11.4999
▁'{}'",	-11.5003
▁Managed	-11.5003
▁(%	-11.5004
▁care	-11.5005
▁Timestamp	-11.5005
InputFormat	-11.5006
SessionId	-11.5007
Adj	-11.501
▁analysis	-11.5011
getOutputStream	-11.5014
faces	-11.5022
updated	-11.5023
86	-11.5024
INode	-11.5026
Iteration	-11.5027
58	-11.5027
Rtf	-11.5029
▁rate	-11.5034
Spans	-11.5035
▁rank	-11.5036
trait	-11.5037
siteRoot	-11.5041
▁days	-11.5047
▁XAException	-11.5052
addLast	-11.5053
PG	-11.5054
▁logic	-11.5056
reaction	-11.5059
▁explicit	-11.506
▁REST	-11.5066
VersionRequest	-11.5069
Dom	-11.5069
TextView	-11.507
StatementBuilder	-11.5071
*2	-11.5072
DeclaredMethod	-11.5075
setContext	-11.5076
▁getConnection	-11.5083
ima	-11.5084
96	-11.5084
emptySet	-11.5086
NAMES	-11.5093
▁Const	-11.51
▁composite	-11.5102
▁generat	-11.5103
ComputeNode	-11.5104
MessageStore	-11.5106
Grouping	-11.5109
Saml	-11.5113
▁getLogger	-11.5113
getAsString	-11.5118
▁getString	-11.512
▁broadcast	-11.5122
▁pane	-11.5122
ESCAPE	-11.5125
Traversal	-11.5125
定	-11.5125
Retries	-11.5125
implicit	-11.5125
NameValuePair	-11.5125
Mismatch	-11.5125
Performance	-11.5125
Failover	-11.5125
authority	-11.5126
Markup	-11.5127
▁JMSException	-11.5127
CHARSET	-11.5127
▁BORDER	-11.5127
▁raster	-11.5129
Scalar	-11.5129
TrustManager	-11.513
setupDefault	-11.5133
▁InvalidArgument	-11.5133
TopLevel	-11.5136
▁producer	-11.5136
Sys	-11.5138
▁activate	-11.514
family	-11.5144
Google	-11.5144
▁numRows	-11.5145
appear	-11.5145
lhs	-11.5145
Rfc	-11.5146
override	-11.5146
FTP	-11.5147
▁git	-11.5149
fieldType	-11.515
▁cloned	-11.5153
PrintStream	-11.5154
Discover	-11.5158
wire	-11.5158
▁bmd	-11.516
Bonds	-11.516
Xsd	-11.5161
ByteOrder	-11.5165
CRL	-11.5166
▁bonds	-11.5167
Gregorian	-11.5167
▁parameterized	-11.5168
getStringValue	-11.5168
ItemId	-11.5172
outputStream	-11.5173
Inf	-11.5175
EventAttributes	-11.5177
10:	-11.5177
bus	-11.5178
▁pk	-11.5183
registered	-11.5184
Sending	-11.5185
▁kill	-11.5192
▁Modifier	-11.5197
▁Composite	-11.5199
▁findByC	-11.5205
acl	-11.5205
CUD	-11.5205
tcp	-11.5207
PackageManager	-11.521
▁checkFor	-11.5215
permission	-11.5223
Objective	-11.5232
periodInfo	-11.5233
▁vc	-11.5237
▁getCms	-11.5237
AA	-11.5241
getGeneric	-11.5244
Tokenizer	-11.5246
AccountInner	-11.5248
LogRecord	-11.5248
getDuration	-11.525
▁ser	-11.525
▁Tile	-11.5251
▁snmp	-11.5253
MainRecord	-11.5255
matrixPosition	-11.5257
appendChild	-11.526
Refs	-11.5261
Descriptions	-11.5261
getNodeType	-11.5264
COL	-11.5266
primary	-11.5269
workspace	-11.527
Tracer	-11.528
Take	-11.5281
▁vars	-11.5281
ValueExpression	-11.5282
Suite	-11.5283
measure	-11.5286
57	-11.5286
built	-11.5286
Ancestor	-11.5286
Frequency	-11.5286
Rollback	-11.5286
Creating	-11.5286
activation	-11.5286
Benchmark	-11.5286
DESTINATION	-11.5286
alphabet	-11.5286
visibility	-11.5286
divisor	-11.5286
Like	-11.5286
Vendor	-11.5286
REGEX	-11.5286
Incoming	-11.5286
Tooltip	-11.5286
Docker	-11.5286
gwt	-11.5287
Jwt	-11.5287
tango	-11.5287
Prediction	-11.5288
getOriginal	-11.5289
▁fe	-11.5289
probability	-11.5289
produce	-11.529
Normalized	-11.5291
getChildNodes	-11.5291
delivery	-11.5292
▁hours	-11.5294
juli	-11.5294
Appendable	-11.5295
▁executeCreate	-11.5297
stylesheet	-11.5299
gp	-11.53
▁vpn	-11.5302
own	-11.5303
hide	-11.5303
getActivity	-11.5304
▁going	-11.5306
▁thing	-11.5306
combine	-11.5308
inject	-11.5308
WebDriver	-11.5309
Linear	-11.531
country	-11.531
When	-11.5311
verbose	-11.5311
divide	-11.5311
LY	-11.5312
widget	-11.5313
written	-11.5313
▁Sort	-11.5316
imply	-11.5316
▁wb	-11.532
Lang	-11.5324
▁Html	-11.5326
DAYS	-11.5326
▁dependent	-11.5327
▁secure	-11.5328
UpdateParameters	-11.5331
▁StackTrace	-11.5331
swap	-11.5332
▁anchor	-11.5333
JvmTypeReference	-11.5334
▁qr	-11.5339
▁procedure	-11.5345
ruleX	-11.535
▁deleteresources	-11.535
ItemStream	-11.5351
RATE	-11.5352
▁gradient	-11.5365
matched	-11.5367
▁objectName	-11.5368
▁LocalDateTime	-11.5369
▁registryName	-11.537
▁ans	-11.5371
▁instant	-11.5372
▁JsonArray	-11.5379
400	-11.5381
▁isSet	-11.5381
▁UnsupportedE	-11.5381
Qu	-11.5383
addresses	-11.5389
▁pts	-11.5395
Transactional	-11.5396
gui	-11.5396
Band	-11.5397
▁Cookie	-11.5403
metrics	-11.5404
▁projection	-11.5405
▁resourceType	-11.5409
66	-11.5412
▁rename	-11.5417
Portal	-11.5422
▁DateFormat	-11.5423
getImage	-11.5423
XY	-11.5424
ToBe	-11.5427
▁sr	-11.5433
▁rd	-11.5441
Tok	-11.5444
Deploy	-11.5448
Until	-11.5449
kundera	-11.545
RoaringBitmap	-11.545
SEARCH	-11.545
fieldStuff	-11.545
ENGLISH	-11.545
▁carry	-11.545
Strict	-11.545
中	-11.545
Nested	-11.545
Keras	-11.545
Small	-11.545
▁ZipEntry	-11.5451
▁very	-11.5451
IfNeeded	-11.5452
▁overflow	-11.5452
POINT	-11.5452
cardinality	-11.5452
▁'9'	-11.5452
CProductId	-11.5454
Leading	-11.5454
Within	-11.5454
Serialized	-11.5455
Light	-11.5455
▁those	-11.5456
▁SVG	-11.5459
▁implemented	-11.5467
JarEntry	-11.5467
Invoice	-11.5467
rth	-11.5473
docs	-11.5473
overlay	-11.5476
enter	-11.5479
license	-11.548
FFDC	-11.5481
branch	-11.5482
xid	-11.5485
most	-11.5487
▁excluded	-11.5489
OpenCms	-11.549
IDENTITY	-11.5493
Ack	-11.5494
Ping	-11.5494
StateHandle	-11.5496
ory	-11.5499
▁internalRequest	-11.5502
getUnique	-11.5502
▁getInt	-11.5505
FailureException	-11.551
▁prior	-11.5515
eal	-11.5515
▁realm	-11.5515
price	-11.5517
ace	-11.5519
▁desired	-11.552
▁bw	-11.5522
SB	-11.5524
saw	-11.5525
▁ct	-11.5529
OfDay	-11.553
isAbsolute	-11.5531
▁dm	-11.5531
Fingerprint	-11.5532
1/	-11.5536
▁ObjectMapper	-11.5542
▁na	-11.5546
▁newValues	-11.5546
▁bindings	-11.5547
▁attach	-11.5549
▁Insert	-11.555
ingletonList	-11.5552
readValue	-11.5554
Behaviors	-11.5555
Stamp	-11.5556
packageName	-11.556
tasks	-11.5565
Afp	-11.5566
▁el	-11.5568
▁txn	-11.5569
elt	-11.557
▁beanClass	-11.557
▁leave	-11.5572
BACK	-11.5573
ANT	-11.5574
▁CmsProperty	-11.5576
▁Sarl	-11.5581
setLayout	-11.5587
▁verbose	-11.5591
getTags	-11.5594
grammar	-11.56
mat	-11.5602
▁Amazon	-11.5602
CmsSearch	-11.5606
Bag	-11.5606
getAvailable	-11.5606
convertTo	-11.5607
▁DBID	-11.5608
▁cclass	-11.5609
▁backend	-11.5615
Hdr	-11.5616
BIG	-11.5616
#"	-11.5617
Slave	-11.5617
COMMAND	-11.5617
Cycle	-11.5617
GAUGE	-11.5617
Neighbour	-11.5617
Quantity	-11.5617
▁everything	-11.5617
PROVIDER	-11.5617
▁temporal	-11.5617
('\\'	-11.5617
Arithmetic	-11.5617
inverse	-11.5617
。	-11.5617
fatal	-11.5617
drain	-11.5617
Continuation	-11.5617
▁expired	-11.5618
buildingFunction	-11.5618
MeasureEClass	-11.562
▁CmsObject	-11.562
Provisioning	-11.562
magic	-11.562
Design	-11.562
contents	-11.562
Unsafe	-11.5623
typedArray	-11.5624
LocalTime	-11.5625
wise	-11.5625
facesContext	-11.5625
▁DMatrix	-11.5627
▁metaModel	-11.5631
(1000	-11.5636
▁guid	-11.5637
take	-11.5639
TypeEnumEEnum	-11.5644
Sarl	-11.5646
fixed	-11.565
▁"</	-11.565
▁JsonToken	-11.5651
MAIN	-11.5653
Prob	-11.5656
Try	-11.5657
jvm	-11.5658
▁etc	-11.5664
ProjectTask	-11.5666
unmarshal	-11.5667
▁Geo	-11.5669
▁abs	-11.5672
setTitle	-11.5673
seen	-11.5673
eeName	-11.5675
ResourcePath	-11.5676
▁broker	-11.5676
▁shadow	-11.5677
▁far	-11.5678
Original	-11.5684
Costs	-11.5684
Room	-11.5685
DST	-11.5687
startIndex	-11.5691
normal	-11.5693
▁bufferIndex	-11.5695
getSql	-11.5697
superClass	-11.5698
▁locator	-11.5702
mutations	-11.5707
▁des	-11.571
getGeometry	-11.571
Letter	-11.5713
1]	-11.5716
▁chunks	-11.5716
processed	-11.5717
▁IR	-11.5721
Streaming	-11.5722
getFields	-11.5723
▁Determine	-11.5725
▁ArrayUtil	-11.5727
getProp	-11.5728
▁replication	-11.5734
78	-11.5735
▁program	-11.5741
LU	-11.5743
lab	-11.5744
▁rgb	-11.5744
finderPath	-11.5747
ToRemove	-11.5748
groupName	-11.5748
win	-11.5757
EList	-11.5765
▁lazy	-11.5768
▁upperBound	-11.5771
▁unset	-11.5771
EndOf	-11.5772
▁queryBuilder	-11.5773
stringValue	-11.5773
Watcher	-11.5774
dtm	-11.5778
FileSize	-11.578
Alternative	-11.5782
▁?>>	-11.5783
Anchor	-11.5784
Gallery	-11.5785
JAXB	-11.5785
keyspace	-11.5785
Retention	-11.5786
Assessment	-11.5786
▁Bitmap	-11.5786
CommerceWishList	-11.5786
FUNCTION	-11.5786
MEDIA	-11.5786
CUSTOM	-11.5786
Coverage	-11.5786
Ignoring	-11.5786
PERSISTENT	-11.5786
potential	-11.5786
routine	-11.5786
pojo	-11.5786
下	-11.5786
用	-11.5786
SOAP	-11.5787
Team	-11.5787
▁meth	-11.5788
VoltDB	-11.5788
PubSub	-11.5788
▁outside	-11.5792
▁classloader	-11.5792
DATABASE	-11.5792
ManagedObject	-11.5796
Some	-11.58
CompanyId	-11.58
▁enumerator	-11.5802
DateFormat	-11.5803
▁supplier	-11.5809
▁unicode	-11.5809
▁quality	-11.5811
zz	-11.5813
▁pro	-11.5813
wp	-11.5813
▁5)	-11.5815
Inside	-11.5817
fullName	-11.5819
▁CR	-11.5819
▁beans	-11.5821
▁JsonElement	-11.5821
pEntity	-11.5823
▁note	-11.5824
68	-11.5826
integer	-11.5829
InetAddress	-11.583
tick	-11.5833
PrintWriter	-11.5836
native	-11.5839
getLocalName	-11.584
fld	-11.5842
Online	-11.5844
Relationships	-11.5849
Outer	-11.5851
▁artifactId	-11.5852
TypeDescriptor	-11.5853
rgb	-11.5854
Closeable	-11.5854
Steps	-11.5856
Kam	-11.5859
tribut	-11.586
RFC	-11.5868
▁getData	-11.5868
▁enter	-11.5869
setLast	-11.587
▁visited	-11.5872
▁BYTE	-11.5872
▁dec	-11.5874
▁comparison	-11.5874
▁coord	-11.5875
onSuccess	-11.5883
▁An	-11.5885
metaData	-11.5885
:\	-11.5886
62	-11.5891
47	-11.5894
▁'['	-11.5894
rev	-11.5895
portal	-11.5896
Chunks	-11.5897
▁GL	-11.5902
resolver	-11.5904
Syn	-11.5905
▁GrayF	-11.5906
▁Debug	-11.5908
Matched	-11.5916
▁Big	-11.5919
▁cont	-11.5929
▁grouping	-11.593
toInt	-11.5932
setLength	-11.5933
minus	-11.5935
▁Joiner	-11.5936
▁subscribe	-11.5946
ProcessInstance	-11.5946
ules	-11.5947
▁background	-11.5954
▁RequestBuilder	-11.5957
有	-11.5959
ActionPerformed	-11.5959
Major	-11.5959
JNDI	-11.5959
INCLUDE	-11.5959
MODULE	-11.5959
SHIFT	-11.5959
camera	-11.5959
pRqVs	-11.5959
pivot	-11.5959
(',');	-11.5959
MtasSolr	-11.5959
▁'|'	-11.5959
Boot	-11.5959
shell	-11.5959
green	-11.5959
Stopwatch	-11.5959
时	-11.5959
8601	-11.5959
▁Promise	-11.5959
Sense	-11.596
▁good	-11.596
Enter	-11.596
▁Alluxio	-11.5961
Vault	-11.5962
intuit	-11.5963
▁raf	-11.5964
▁feed	-11.5965
▁viewport	-11.5966
BinaryOperator	-11.5969
achmentFileEntry	-11.5973
Configured	-11.5974
stride	-11.5975
Taglet	-11.5976
getProxy	-11.5977
soap	-11.5984
den	-11.5985
Iam	-11.5987
▁wi	-11.599
▁aggregate	-11.599
PH	-11.5993
▁placeholder	-11.5993
▁adaptor	-11.5994
vm	-11.5995
▁nodeId	-11.6
bounds	-11.6003
("$	-11.6003
ommerceWarehouse	-11.6003
▁sketch	-11.6005
criteria	-11.6007
logging	-11.6007
section	-11.6007
precision	-11.6007
alpha	-11.6008
tenant	-11.6009
topology	-11.601
portlet	-11.601
▁eventType	-11.6015
▁issuer	-11.6017
▁entityManager	-11.6017
CN	-11.6017
geom	-11.6018
▁listNext	-11.6019
CmsUUID	-11.6019
Generics	-11.602
dao	-11.602
FIELDS	-11.6022
ProcessInfo	-11.6024
checkValid	-11.6029
rewrite	-11.6031
67	-11.6031
setIs	-11.6032
getCell	-11.6034
HostName	-11.6034
cb	-11.6042
▁mime	-11.6042
▁syntax	-11.6043
▁card	-11.6044
createQuery	-11.6045
actor	-11.6045
tools	-11.6045
]=	-11.6053
▁intersection	-11.6054
▁ci	-11.6056
▁fieldValue	-11.6057
Mime	-11.6057
▁writable	-11.6059
▁Jenkins	-11.6059
prod	-11.6062
appendOptional	-11.6067
WithCode	-11.6068
DataSegment	-11.6074
▁align	-11.6076
ResourceRequest	-11.6077
OAuth	-11.6078
annotations	-11.6089
Red	-11.609
aintenanceWindow	-11.6091
arameterizedHost	-11.6091
TableModel	-11.6095
unregister	-11.61
Sh	-11.6105
:%	-11.6106
Tabs	-11.6109
WebSocket	-11.6109
▁compress	-11.611
\\\\	-11.611
Pin	-11.611
▁increase	-11.6111
nb	-11.6113
▁family	-11.6113
Fleet	-11.6123
▁tagName	-11.6126
Construction	-11.6127
Motion	-11.6131
Certificates	-11.6132
canonical	-11.6132
Regular	-11.6134
distribution	-11.6134
FONT	-11.6134
Severity	-11.6134
▁further	-11.6134
DECIMAL	-11.6134
IDENTIFIER	-11.6134
Quality	-11.6134
average	-11.6134
SKIP	-11.6134
▁sense	-11.6134
Jingle	-11.6134
▁latch	-11.6134
vendor	-11.6135
BOX	-11.6135
percent	-11.6135
▁Serialization	-11.6135
▁GeoPoint	-11.6137
▁sv	-11.6137
Specs	-11.6137
Inherited	-11.6138
centre	-11.6139
▁overwrite	-11.614
getAtomCount	-11.6145
Sym	-11.6145
▁atomContainer	-11.6145
▁ticket	-11.6148
▁imageSearch	-11.6148
ftp	-11.6148
Launcher	-11.6149
Localization	-11.615
▁getPath	-11.6154
▁Concurrent	-11.6156
+=	-11.6157
▁objectMapper	-11.6158
;}	-11.6161
▁views	-11.6162
▁Ldap	-11.6162
▁getElement	-11.6164
▁outline	-11.6166
▁documents	-11.6169
tagged	-11.617
▁world	-11.6173
▁locate	-11.6174
certificate	-11.6177
GrayF	-11.6178
▁pageSize	-11.6179
errorcode	-11.6179
War	-11.618
▁StrUtil	-11.6183
acquire	-11.6188
WHERE	-11.6189
phase	-11.6189
INDArray	-11.6194
▁INVALID	-11.6195
RUN	-11.6198
IllegalState	-11.6199
▁tracker	-11.62
▁dn	-11.6201
▁href	-11.6203
finished	-11.6203
strip	-11.6206
▁Audit	-11.6207
Defines	-11.6207
▁keyStore	-11.6208
▁dev	-11.621
000000	-11.6212
Broadcast	-11.6216
tran	-11.6216
GE	-11.6217
JobStatus	-11.6223
▁DocumentBuilder	-11.6225
best	-11.6225
Circle	-11.6225
projects	-11.6231
REST	-11.6233
▁rp	-11.6238
Spaces	-11.624
▁LONG	-11.6241
▁FileReader	-11.6242
fect	-11.6242
▁leading	-11.6247
getPrefix	-11.6248
Trim	-11.6249
ative	-11.625
▁poll	-11.6252
vocab	-11.6253
parentOf	-11.6256
▁Example	-11.6263
▁addField	-11.6265
▁pages	-11.6273
▁delim	-11.6273
unc	-11.6288
▁dead	-11.6288
rules	-11.629
Gap	-11.6291
▁InputSource	-11.6294
▁cacheName	-11.6297
ZipFile	-11.6298
▁splits	-11.6301
Attached	-11.6302
▁div	-11.6304
89	-11.6304
EventHandler	-11.6309
theta	-11.631
▁represent	-11.6311
Stopped	-11.6312
▁Lazy	-11.6312
Average	-11.6313
CONTAINER	-11.6313
DIRECTORY	-11.6313
Agreement	-11.6313
Translator	-11.6313
Lexicon	-11.6313
flickr	-11.6313
historic	-11.6313
▁Ensure	-11.6313
SYNC	-11.6313
▁Gson	-11.6313
Probability	-11.6313
Capability	-11.6313
Concat	-11.6314
Stub	-11.6314
▁Chrono	-11.6314
ConnectGateway	-11.6315
Charge	-11.6316
Installation	-11.6316
Mono	-11.6321
▁STATUS	-11.6322
Markers	-11.6324
▁cross	-11.6327
▁defaultFlags	-11.6327
OrNull	-11.6328
uncompressed	-11.6332
WAS	-11.6333
▁colon	-11.6335
▁HttpSession	-11.6336
▁analyze	-11.6336
WARN	-11.6339
▁Initialize	-11.6339
AsLong	-11.6343
▁Named	-11.6347
▁startup	-11.6348
EntityRole	-11.6356
▁modifier	-11.6357
lineTo	-11.6358
{1}	-11.6362
CmsWorkplace	-11.6363
Tri	-11.6363
Processed	-11.6364
FINER	-11.6365
▁Subject	-11.6366
▁Identity	-11.6366
▁---------	-11.6369
attachment	-11.637
definition	-11.6373
▁pref	-11.6373
attach	-11.6373
negative	-11.6374
generator	-11.6375
Ovh	-11.6375
▁entityId	-11.6376
getMember	-11.6377
recovery	-11.6378
Working	-11.638
GA	-11.6382
▁scopes	-11.6385
parseBoolean	-11.6387
77	-11.6387
Mix	-11.6387
▁Closure	-11.6388
▁regular	-11.6389
MetricName	-11.6392
+1;	-11.6392
spark	-11.6392
▁gap	-11.6395
lineSeparator	-11.6398
normalized	-11.6399
▁callable	-11.6403
download	-11.6404
worker	-11.6404
▁Dimension	-11.6407
getColor	-11.6409
▁contained	-11.6418
SEC	-11.6419
▁Any	-11.6422
▁https	-11.6426
▁inst	-11.6426
▁quick	-11.6427
plural	-11.6435
▁imag	-11.6436
members	-11.6438
serviceEndpoint	-11.644
InsnNode	-11.6444
aster	-11.6447
errorMessage	-11.6447
▁specification	-11.6448
=").	-11.6449
Offline	-11.6454
▁combined	-11.6459
toURL	-11.6464
inst	-11.6466
▁blue	-11.6472
lin	-11.6474
alloc	-11.6476
copyFrom	-11.648
mon	-11.648
SocketChannel	-11.6482
Visit	-11.6483
Modifiers	-11.6483
▁clusterName	-11.6483
▁Azure	-11.6483
resourceId	-11.6486
DatabaseType	-11.6487
Rev	-11.6487
▁inputA	-11.6488
▁getImage	-11.6489
That	-11.6494
estimate	-11.6494
Suppress	-11.6494
▁pull	-11.6495
mandatory	-11.6495
bridge	-11.6495
illegal	-11.6495
▁separate	-11.6495
行	-11.6495
HORIZONTAL	-11.6495
NEGATIVE	-11.6495
Produces	-11.6495
▁exceed	-11.6495
front	-11.6495
Footer	-11.6495
suite	-11.6495
Either	-11.6495
severe	-11.6495
Adjust	-11.6495
Percentage	-11.6495
Workbook	-11.6496
Cleanup	-11.6496
qr	-11.6496
speed	-11.6497
▁HttpClient	-11.6497
evaluation	-11.6497
▁RandomVariable	-11.6497
contact	-11.6502
Deep	-11.6502
▁queries	-11.6508
▁encrypted	-11.6508
▁executeDelete	-11.6509
Colon	-11.6511
▁gp	-11.6511
getSegment	-11.6512
▁dispatcher	-11.6514
▁disconnect	-11.6514
VarQueryParams	-11.6517
getAnnotations	-11.6518
hasRemaining	-11.6519
Javadoc	-11.652
Startup	-11.6523
▁deep	-11.6524
Tcp	-11.6525
XA	-11.6525
circuit	-11.6542
▁attributeValue	-11.6542
Minute	-11.6545
69	-11.6548
Submit	-11.6549
Plural	-11.655
setVisibility	-11.6554
▁dictionary	-11.6555
▁issues	-11.6555
Building	-11.6558
MODEL	-11.6559
▁EOFException	-11.6561
▁red	-11.6562
networkInterface	-11.6562
audit	-11.6563
indices	-11.6563
▁MBean	-11.6563
person	-11.6563
snapshot	-11.6563
attempt	-11.6564
▁cbuf	-11.6564
constant	-11.6567
▁orientation	-11.6572
ColumnNames	-11.6573
indent	-11.6573
▁beta	-11.6574
▁"["	-11.6575
oy	-11.6575
mimeType	-11.6583
fax	-11.6586
▁strict	-11.6587
▁roll	-11.6591
variableName	-11.6592
("["	-11.6594
virtual	-11.6597
CacheEntry	-11.6603
▁attrName	-11.6611
nodeId	-11.6616
▁decl	-11.6618
▁vertices	-11.663
buff	-11.6631
OLD	-11.6633
▁statements	-11.6634
▁sd	-11.6637
▁actor	-11.6639
AnnotationValue	-11.6646
destOffset	-11.6654
Always	-11.6654
Persist	-11.6663
▁sm	-11.6663
▁alignment	-11.6671
Minimum	-11.6674
▁mediaType	-11.6675
started	-11.6675
▁trust	-11.6677
▁performance	-11.6678
Individual	-11.668
UNIQUE	-11.668
置	-11.668
ACTIVITY	-11.668
Interpreter	-11.668
World	-11.668
isWarnEnabled	-11.668
latitude	-11.668
enumeration	-11.668
▁reflection	-11.668
footer	-11.668
Era	-11.668
▁authenticate	-11.668
lemma	-11.6681
REQUIRED	-11.6681
Have	-11.6681
mock	-11.6682
▁properly	-11.6682
Chat	-11.6683
▁para	-11.6686
intent	-11.6687
Graphic	-11.6688
PoolSize	-11.6688
DrawerItem	-11.6688
▁keystore	-11.6697
▁Iterate	-11.6698
CmsDb	-11.6699
Acceptor	-11.67
AccessControl	-11.6701
DTD	-11.6704
Comments	-11.6706
▁obs	-11.6707
▁entityMetadata	-11.6708
Viewer	-11.6711
ZoneId	-11.6712
▁timezone	-11.6714
getIdentity	-11.6714
DEF	-11.6724
CmsRole	-11.6727
▁patterns	-11.6727
▁Need	-11.6729
MESSAGES	-11.673
FaxJob	-11.6731
Atlas	-11.6733
▁assigned	-11.6734
ACK	-11.6736
Hold	-11.6737
▁itrans	-11.674
▁toAdd	-11.6741
Checking	-11.6742
▁resourceId	-11.6746
Need	-11.6746
▁Portlet	-11.6747
Triggers	-11.6749
▁preferences	-11.6751
81	-11.6753
transition	-11.6753
lit	-11.6754
setDescription	-11.6754
GVR	-11.6754
slice	-11.6754
video	-11.6755
instant	-11.6755
Comparable	-11.6756
usage	-11.6758
▁locations	-11.6758
Wrapped	-11.6763
WebApplication	-11.6764
▁grant	-11.6765
MessageInfo	-11.6765
getPlugin	-11.6767
ExecutionContext	-11.6769
Extend	-11.6779
Associations	-11.6782
05	-11.6782
▁jobs	-11.6783
Scoped	-11.6784
=0	-11.679
▁7;	-11.6791
▁samples	-11.6793
Relations	-11.6793
▁appender	-11.6794
▁effective	-11.6794
Got	-11.6796
getBegin	-11.6799
▁marshaller	-11.6806
ItemRequest	-11.6808
toMillis	-11.6808
▁updateWith	-11.6809
targetClass	-11.6812
ResultInner	-11.6813
▁conversation	-11.6814
▁bos	-11.6815
dbName	-11.6817
ReturnCode	-11.6819
RC	-11.682
getScope	-11.6822
Quotes	-11.6823
isSelected	-11.6825
Restart	-11.6826
setEntity	-11.6831
▁nn	-11.6831
▁When	-11.684
▁DataSet	-11.6842
setOn	-11.6847
issue	-11.6849
getRight	-11.6851
Recorder	-11.6854
getActive	-11.6859
▁pop	-11.6861
SuperClass	-11.6861
▁`	-11.6863
aggregator	-11.6868
Occur	-11.6868
Termination	-11.6868
ByUuidAnd	-11.6868
SYMBOL	-11.6868
201809.	-11.6868
Apptentive	-11.6868
Analytic	-11.6868
BACKGROUND	-11.6868
CAPACITY	-11.6868
SHOW	-11.6868
Wrong	-11.6868
movie	-11.6868
▁whitespace	-11.6868
Campaign	-11.6868
▁Just	-11.6868
substitute	-11.6868
73	-11.6869
CANCEL	-11.6869
DOMAIN	-11.6869
▁beginCreateOr	-11.6869
CPInstanceUuid	-11.6869
BiFunction	-11.687
ALTER	-11.687
Specified	-11.6871
41	-11.6872
▁whole	-11.6872
▁resolution	-11.6872
Receive	-11.6874
Planar	-11.6874
elab	-11.6875
VOID	-11.6877
▁rnd	-11.6878
▁'>'	-11.6881
getAsJson	-11.6882
Ignored	-11.6884
▁getChild	-11.6886
▁unexpected	-11.6887
Folders	-11.6887
jsp	-11.6889
Pom	-11.689
▁jc	-11.6891
factories	-11.6893
OrDefault	-11.6895
dec	-11.6896
jarFile	-11.6897
toPath	-11.6897
▁workspaceName	-11.69
Prototype	-11.6902
Ptr	-11.6902
OutputFile	-11.6904
queryParam	-11.6904
▁watch	-11.6905
Filtered	-11.6905
▁upgrade	-11.6906
▁conv	-11.6907
Counters	-11.6909
▁union	-11.6909
Datastream	-11.691
Player	-11.6911
▁xid	-11.6911
▁adGroup	-11.6913
▁executeUpdate	-11.6915
Inst	-11.6921
Signing	-11.6922
Successful	-11.6922
columnFamily	-11.6935
▁mp	-11.6938
▁dimension	-11.6943
▁Malformed	-11.6946
()-1)	-11.6946
translate	-11.6949
▁singleton	-11.6949
("'"	-11.6951
BundleContext	-11.6951
mapped	-11.6951
wrapped	-11.6952
switch	-11.6953
encrypt	-11.6957
editor	-11.6957
DFS	-11.6958
▁nextPage	-11.6958
▁idle	-11.6961
▁cond	-11.6962
getStorage	-11.6965
fis	-11.6968
▁attached	-11.6971
getComponentType	-11.6972
▁getContext	-11.6977
▁Nothing	-11.6979
Shadow	-11.6983
componentType	-11.6986
ModelImpl	-11.6988
07	-11.6988
TCP	-11.6988
HA	-11.6989
getCanonical	-11.6989
Facebook	-11.699
derivX	-11.699
▁BuildException	-11.6991
TableRow	-11.6997
Supplement	-11.6999
▁Send	-11.7
RenderingHints	-11.7002
ToMap	-11.7003
▁{0}	-11.7004
▁parameterName	-11.7012
▁namespaces	-11.7015
anc	-11.7015
getByte	-11.7018
▁neighbour	-11.7021
nil	-11.7024
▁MessageFormat	-11.7028
▁generics	-11.7039
▁related	-11.704
Suggestion	-11.704
live	-11.7042
▁Dynamic	-11.7044
Domains	-11.705
seed	-11.7055
Jawr	-11.7055
Mongo	-11.706
▁give	-11.706
fully	-11.706
CONSTRUCTOR	-11.7061
POLICY	-11.7061
BEFORE	-11.7061
MULTI	-11.7061
three	-11.7061
Concurrency	-11.7061
attack	-11.7061
THREAD	-11.7062
liborPeriodIndex	-11.7062
▁moduleName	-11.7063
▁infer	-11.7063
('=')	-11.7063
▁letter	-11.7064
▁ft	-11.7065
▁detector	-11.7066
Chooser	-11.7066
locations	-11.7068
Printer	-11.7068
▁Platform	-11.707
▁JPanel	-11.7073
Varargs	-11.7074
dataOffset	-11.7075
▁checkResult	-11.7077
▁findByG	-11.7079
▁customer	-11.7085
▁stackTrace	-11.7085
(1)=='	-11.709
ModuleMetaData	-11.7091
Thrown	-11.7092
links	-11.7093
successful	-11.7099
Proc	-11.7101
▁proper	-11.7102
VC	-11.7105
▁queryParams	-11.7113
eol	-11.7113
▁tip	-11.7115
MBeanServer	-11.7118
png	-11.7118
entityClass	-11.7122
CodePoint	-11.7123
▁3:	-11.713
='"	-11.7136
▁supports	-11.7142
300	-11.7145
Preferred	-11.7147
Malformed	-11.7149
={	-11.715
roll	-11.7151
reversed	-11.7152
look	-11.7152
stub	-11.7152
maximum	-11.7153
Hadoop	-11.7153
klass	-11.7153
like	-11.7154
heap	-11.7154
▁rand	-11.7157
SEP	-11.7157
WR	-11.7157
▁Scheduler	-11.7159
▁dic	-11.7166
▁violation	-11.7167
▁vectors	-11.7167
▁configFile	-11.7171
solve	-11.7171
getController	-11.7176
▁sleep	-11.7179
▁feat	-11.718
Norm	-11.7183
StyleName	-11.7183
Than	-11.7183
variables	-11.7184
▁ServletContext	-11.7185
▁acquire	-11.7186
XAException	-11.7186
Subscriptions	-11.7187
ItemState	-11.7189
▁My	-11.719
hp	-11.7191
▁dp	-11.7194
Cookies	-11.7194
mbr	-11.7196
Large	-11.7197
Perform	-11.7197
▁MP	-11.72
openSession	-11.7202
▁avail	-11.7206
area	-11.7207
ute	-11.7212
getBuild	-11.7215
▁readObject	-11.7218
DryRun	-11.722
addMethod	-11.7221
ForResource	-11.7223
PP	-11.7226
RowCount	-11.7226
wrapper	-11.7227
▁Google	-11.7233
getQualifiedName	-11.7235
xf	-11.7238
OrThrow	-11.724
▁blank	-11.7241
▁heartbeat	-11.7241
QueryParameter	-11.7243
Expectation	-11.7245
▁team	-11.7248
walk	-11.7251
getWindow	-11.7251
▁sf	-11.7252
Clip	-11.7253
Suggest	-11.7255
DECODABET	-11.7257
Couchbase	-11.7257
Nucleotide	-11.7257
Pojo	-11.7257
COMPONENT	-11.7257
Closing	-11.7257
Distinct	-11.7257
INNER	-11.7257
Through	-11.7257
gamma	-11.7257
serializable	-11.7257
Attack	-11.7257
GLOBAL	-11.7257
Gaussian	-11.7257
Legacy	-11.7257
ENTRY	-11.7257
Stale	-11.7257
Catch	-11.7257
PASSWORD	-11.7257
foreground	-11.7257
▁beginning	-11.7257
mpxj	-11.7257
HALF	-11.7257
EXPORT	-11.7257
dManagerServices	-11.7257
▁Canal	-11.7257
Will	-11.7257
BioPAXElement	-11.7258
inspection	-11.7258
▁']'	-11.7258
Secondary	-11.7259
Trait	-11.7259
wsdl	-11.7264
▁pub	-11.7265
▁steps	-11.7266
▁containing	-11.7267
Stylesheet	-11.7267
Baseline	-11.7268
pat	-11.7269
▁blob	-11.7271
COMPACT	-11.7272
RelativePath	-11.7273
▁previously	-11.7273
authorizer	-11.7273
▁classInfo	-11.7275
getWorkspace	-11.7275
GMT	-11.7278
isInitialized	-11.7281
Interceptors	-11.7283
▁Hierarchical	-11.7284
lc	-11.7284
IDE	-11.7285
▁ui	-11.7285
JsonDeserializer	-11.7286
syslog	-11.7287
[6]	-11.729
PathElement	-11.7291
▁py	-11.7291
PropertyAccessor	-11.7291
animate	-11.7294
Rendered	-11.7297
compressed	-11.73
:1:	-11.73
GroupInner	-11.7303
▁individual	-11.7303
▁links	-11.7307
SU	-11.7308
▁underlying	-11.7308
perm	-11.7312
material	-11.7312
Alt	-11.7315
LogFile	-11.7315
RequestMapping	-11.7317
Authenticated	-11.7317
haredPreferences	-11.7319
basisFunction	-11.7321
DBParam	-11.7322
▁bc	-11.7322
▁pq	-11.7322
▁syn	-11.7324
▁corpus	-11.7325
▁getConfig	-11.7327
▁Jdbc	-11.7328
Consumes	-11.733
▁ParserException	-11.733
adjust	-11.733
>(){}	-11.7331
CommandClass	-11.7338
▁pick	-11.734
reason	-11.7341
▁compact	-11.7342
getEndpoint	-11.7344
▁nfe	-11.7347
IQ	-11.7348
▁instruction	-11.7353
duplicate	-11.7355
locator	-11.7355
[{}]	-11.7357
discard	-11.7357
modify	-11.7357
shard	-11.7357
launch	-11.7357
▁advance	-11.7358
present	-11.7358
extended	-11.7361
%02	-11.7362
production	-11.7363
UserAgent	-11.7363
companyId	-11.7363
localized	-11.7365
Plugins	-11.7365
▁getCache	-11.7366
▁imported	-11.7367
signed	-11.7367
tex	-11.7368
Aws	-11.737
StartDate	-11.7372
▁GVR	-11.7376
riplets	-11.7382
Pause	-11.7383
pro	-11.7384
Hits	-11.7386
▁major	-11.7389
▁question	-11.7396
sender	-11.7399
▁DBException	-11.74
▁Jinx	-11.7407
▁cld	-11.7412
unable	-11.7412
INE	-11.7414
▁license	-11.742
quot	-11.7423
RecordOwner	-11.7423
eInverse	-11.7423
▁installed	-11.7428
▁lineNumber	-11.7432
88	-11.7432
outBuff	-11.7439
▁series	-11.7441
▁dialect	-11.7447
DOWN	-11.7449
yes	-11.7449
▁byteArray	-11.7451
CmsUser	-11.7453
ResourceType	-11.7456
Effect	-11.7456
mission	-11.7456
DURATION	-11.7457
groovy	-11.7457
BUILD	-11.7457
Lemma	-11.7457
polymer	-11.7457
Gauge	-11.7457
POOL	-11.7457
PROXY	-11.7457
RENDER	-11.7457
RoundingMode	-11.7457
expiry	-11.7457
▁removing	-11.7457
Latch	-11.7457
ZonedDateTime	-11.7457
concept	-11.7457
dayOfWeek	-11.7457
shuffle	-11.7457
Hyper	-11.7457
Formula	-11.7457
readFully	-11.7457
PublicIPAddress	-11.7457
PKCS	-11.7457
Macro	-11.7458
computeIfAbsent	-11.7458
proceed	-11.7458
SchedulerSupport	-11.7458
Chem	-11.7458
▁CDKException	-11.7458
SIMPLE	-11.746
(3)	-11.7461
IpAddress	-11.7462
VALID	-11.7464
ThreadContext	-11.7464
▁'_'	-11.7466
▁exact	-11.7468
predicates	-11.7468
REQ	-11.747
Painter	-11.7478
createTempFile	-11.7478
+1	-11.7484
checkstyle	-11.7485
SecurityManager	-11.7485
▁nls	-11.7486
▁closeSession	-11.7487
▁apiKey	-11.7491
isSuccess	-11.7492
TypeMirror	-11.7494
bos	-11.7495
LogEntry	-11.7496
encryption	-11.75
PlanNode	-11.7501
unsafe	-11.7503
Dst	-11.7503
▁superclass	-11.7503
pw	-11.7507
ector	-11.7508
▁printer	-11.7508
press	-11.7511
gain	-11.7512
▁CommercePrice	-11.7515
▁maxWidth	-11.7515
Merged	-11.7515
▁Should	-11.7516
▁BitSet	-11.7522
_8);	-11.7523
srec	-11.7526
▁parallel	-11.7528
Timezone	-11.7529
Months	-11.7532
getActual	-11.7536
▁failures	-11.7544
▁scaled	-11.7554
sound	-11.7554
milli	-11.7555
OWL	-11.7562
IX	-11.7562
resultSet	-11.7562
JDBC	-11.7563
▁tempFile	-11.7563
drop	-11.7564
packet	-11.7565
expand	-11.7565
HC	-11.7567
retval	-11.7571
replacement	-11.7572
onCreate	-11.7575
▁ctxt	-11.7578
invert	-11.7578
triple	-11.7578
▁slice	-11.7579
▁propertyType	-11.758
Accessible	-11.7585
▁dr	-11.7586
lb	-11.759
▁offer	-11.7591
ScrollPane	-11.7597
anno	-11.76
▁Android	-11.7606
▁spaceId	-11.7611
▁pipe	-11.7617
PAR	-11.7625
▁PE	-11.7625
then	-11.7629
▁pixels	-11.7629
:{}	-11.7633
180	-11.7636
sendError	-11.7636
COMP	-11.7647
▁appName	-11.765
MT	-11.7651
intercept	-11.7652
▁ServerException	-11.7656
HEAD	-11.766
▁molecule	-11.766
ignoring	-11.7661
ACCEPT	-11.7661
AVAILABLE	-11.7661
Ontology	-11.7661
PureXbase	-11.7661
commerceWishList	-11.7661
legacy	-11.7661
ListUsageMetrics	-11.7661
github	-11.7661
Conflict	-11.7661
EXECUTION	-11.7661
LISTENER	-11.7661
NUMERIC	-11.7661
到	-11.7661
Vertical	-11.7661
decision	-11.7661
如果	-11.7661
loadBalancer	-11.7661
intensity	-11.7661
distinct	-11.7661
OBJ	-11.7661
TILE	-11.7661
OptionValueRel	-11.7661
Good	-11.7661
Spring	-11.7662
Poly	-11.7662
synpred	-11.7662
▁compression	-11.7662
▁hard	-11.7663
MeasureSpec	-11.7664
▁Caster	-11.7664
MANAGER	-11.7664
slide	-11.7664
Walker	-11.7665
▁classPK	-11.7665
mutate	-11.7666
Sound	-11.7667
▁correctly	-11.7667
ScreenRecord	-11.7671
btn	-11.7676
card	-11.7678
returnType	-11.7679
getMaximum	-11.768
Resp	-11.7681
▁blocking	-11.7681
▁machine	-11.7691
Couldn	-11.7691
Git	-11.7692
ClientId	-11.7692
▁srcOffset	-11.7695
▁routing	-11.7696
▁Unchecked	-11.7696
getDryRun	-11.77
negate	-11.7701
▁resourcePath	-11.7702
getEncoding	-11.7704
LocalDateTime	-11.7704
ChildCount	-11.7707
getAbsolute	-11.7712
createStatement	-11.7716
streamId	-11.7724
▁JsonNode	-11.7725
▁executorService	-11.7728
▁console	-11.7729
▁commandLine	-11.7729
▁refer	-11.7731
CmsReport	-11.7733
▁vaultBaseUrl	-11.7734
▁Vec	-11.7734
▁strValue	-11.7737
▁lon	-11.774
svg	-11.7743
getSecond	-11.7744
▁maxValue	-11.7747
▁skipped	-11.7748
lineNumber	-11.7753
LL	-11.7754
IBM	-11.7756
▁iErrorCode	-11.7757
▁JDBC	-11.776
persist	-11.7772
startTime	-11.7772
lon	-11.7774
grant	-11.7776
rank	-11.7776
association	-11.778
already	-11.7781
DevFailed	-11.7781
primitive	-11.7781
sink	-11.7785
grad	-11.7785
Md	-11.7785
▁retries	-11.7787
that	-11.7788
▁capture	-11.7793
spaceId	-11.7797
fPresent	-11.7809
▁rr	-11.7811
FromFile	-11.782
IE	-11.7821
▁touch	-11.7826
isSame	-11.7827
JsonArray	-11.7829
▁automa	-11.7831
STM	-11.7831
clearCache	-11.7832
71	-11.7834
attrs	-11.7839
▁maxSize	-11.784
▁Se	-11.784
caller	-11.7842
IZE	-11.7842
▁units	-11.7842
docId	-11.7843
InUse	-11.7844
CmsEntity	-11.7845
▁transpose	-11.7847
EQ	-11.785
confirm	-11.7855
health	-11.7868
MEMBER	-11.7869
ambiguous	-11.7869
sampling	-11.7869
benchmark	-11.7869
▁entire	-11.7869
BLANK	-11.7869
CmsSelectWidget	-11.7869
LITERAL	-11.7869
SEQUENCE	-11.7869
Verbose	-11.7869
mojo	-11.7869
▁KNX	-11.7869
文件	-11.7869
▁optimize	-11.7869
LDAP	-11.7869
ListenableFuture	-11.7869
ajax	-11.7869
PatchBaseline	-11.787
naming	-11.787
STATEMENT	-11.787
Overflow	-11.787
REPORT	-11.7871
Storable	-11.7871
DetectionJob	-11.7871
Disable	-11.7872
▁'&'	-11.7872
▁against	-11.7873
soapModel	-11.7873
Fact	-11.7875
EXISTS	-11.7875
▁workUnit	-11.7875
▁Flowable	-11.7876
▁near	-11.7881
Persisted	-11.7881
OPTIONS	-11.7882
PART	-11.7883
▁spaces	-11.7887
▁commercePrice	-11.7888
Swap	-11.789
HtmlStyle	-11.7891
WorkItem	-11.7893
HEX	-11.7898
reshape	-11.7899
addComponent	-11.79
ParsingException	-11.7901
▁band	-11.7906
ChannelHandler	-11.7906
▁marked	-11.7906
PerPage	-11.7909
+1,	-11.791
▁drawer	-11.7915
▁dstIndex	-11.7916
StorageAccount	-11.7917
Minor	-11.7919
indicator	-11.7921
▁geo	-11.7922
Waiter	-11.7925
TxId	-11.7929
handlers	-11.793
▁payment	-11.7935
▁siteName	-11.7944
PathVariable	-11.7947
JA	-11.7948
getReal	-11.795
Candidates	-11.795
▁hierarchy	-11.7952
▁hm	-11.7956
AppService	-11.7956
SEND	-11.7958
$")	-11.7958
CRC	-11.7962
▁rx	-11.7964
INST	-11.7965
tagName	-11.7968
kill	-11.797
dsl	-11.7972
rawData	-11.7972
][1]	-11.7973
▁reconnect	-11.7977
CmsPublish	-11.798
Kill	-11.7986
getRawType	-11.7987
▁";"	-11.799
rootDir	-11.799
▁unescape	-11.7992
lambda	-11.7994
ancestor	-11.7994
BufferedReader	-11.7995
Cpo	-11.7995
={}	-11.8005
▁beanType	-11.8006
Iterations	-11.8007
▁Except	-11.801
▁scene	-11.8011
PropertyDesc	-11.8016
cli	-11.8019
currentValue	-11.8031
toJSON	-11.8031
PageContext	-11.8032
Picker	-11.8038
▁Drools	-11.8045
startElement	-11.8046
-----	-11.8046
▁divide	-11.8048
ParameterValue	-11.8048
Parsing	-11.8049
localAddress	-11.8055
peer	-11.8056
trusted	-11.8057
attrName	-11.8058
CmsRelation	-11.8058
progressListener	-11.8058
getSignature	-11.8058
▁navigation	-11.8062
HANDLE	-11.8064
OnError	-11.8066
fileContent	-11.8066
ConnectionPool	-11.8067
Encrypt	-11.8071
getScript	-11.8073
▁resume	-11.8073
CHANGE	-11.8076
ITY	-11.8077
Detection	-11.8079
theme	-11.808
black	-11.808
SUPPORTED	-11.8082
Applied	-11.8082
Billing	-11.8082
REMOTE	-11.8082
Kafka	-11.8082
Scenario	-11.8082
Stereo	-11.8082
TENANT	-11.8082
serialVersionUID	-11.8082
▁encountered	-11.8082
PERMISSION	-11.8082
Sleep	-11.8082
dummy	-11.8082
isActive	-11.8082
gateway	-11.8082
guard	-11.8082
Plot	-11.8082
tensor	-11.8082
ComboBox	-11.8082
DONT	-11.8082
TEMP	-11.8083
Zxid	-11.8084
adj	-11.8085
Solr	-11.8085
DocumentElement	-11.8085
ENDPOINT	-11.8086
▁ECoordinate	-11.8086
Stem	-11.8087
CFG	-11.8087
▁classifier	-11.8087
\">"	-11.8088
setUser	-11.809
Trailing	-11.8092
initiate	-11.8093
recMessage	-11.8093
EditMode	-11.8093
▁clip	-11.8096
enqueue	-11.8097
Offer	-11.8101
AsInt	-11.8108
projectFile	-11.8113
getGlobal	-11.8113
ForeignKey	-11.8115
InfoInner	-11.8116
▁looking	-11.8116
Inverse	-11.8118
addItem	-11.8121
_2_	-11.8123
LOCALE	-11.8125
pred	-11.8128
solr	-11.8129
ZooKeeper	-11.8129
Included	-11.8131
precondition	-11.8133
setBackground	-11.8141
Declared	-11.8143
nav	-11.8144
▁overlap	-11.8146
TypeSignature	-11.8151
▁Kernel	-11.8152
KV	-11.8158
hasOption	-11.816
Imports	-11.8165
Expire	-11.8165
▁transformed	-11.8166
newHashMap	-11.8169
addError	-11.8173
setScale	-11.8178
▁partitionId	-11.8179
▁epoch	-11.818
▁relations	-11.818
Effective	-11.8183
Hostname	-11.8183
ommerceCountryId	-11.8192
▁successful	-11.8194
Pad	-11.8196
InMemory	-11.8198
▁prefs	-11.8199
adapt	-11.8204
VFS	-11.8204
currency	-11.8206
▁classname	-11.8208
cross	-11.8213
embedded	-11.8215
▁adjustment	-11.8215
disconnect	-11.8215
problem	-11.8216
Statuses	-11.8216
half	-11.8217
possible	-11.8217
FormField	-11.8219
Trying	-11.822
▁cells	-11.8221
ioe	-11.8221
▁expiration	-11.8223
AES	-11.8225
OutputHandler	-11.8226
1000	-11.8227
proto	-11.8228
▁ZipFile	-11.823
▁signed	-11.8236
collector	-11.8236
isVisible	-11.8241
▁organization	-11.8243
▁deploy	-11.8254
999	-11.8255
nodeList	-11.8259
crc	-11.8261
unset	-11.8261
httpClient	-11.8261
▁subset	-11.8271
paint	-11.8272
▁3]	-11.8279
JSONException	-11.8284
TING	-11.8285
Fax	-11.8286
stants	-11.8287
CmsProperty	-11.8288
HeadName	-11.8295
NDArray	-11.8297
Mtas	-11.8298
sanitize	-11.8299
TRANSLATION	-11.8299
Consonant	-11.8299
NOTIFICATION	-11.8299
findViewById	-11.8299
relevant	-11.8299
Centroid	-11.8299
Population	-11.8299
REGISTER	-11.8299
frequency	-11.8299
introspect	-11.8299
toggle	-11.8299
Deletion	-11.8299
▁stuff	-11.8299
Latitude	-11.8299
Detach	-11.8299
SPECIFICATION	-11.8299
数据	-11.8299
business	-11.8299
residue	-11.8299
出	-11.8299
を	-11.8299
OJB	-11.8299
Guild	-11.83
▁chrono	-11.83
!!!	-11.83
LinearRing	-11.83
claim	-11.83
Interconnect	-11.83
THAN	-11.83
▁SSLContext	-11.83
▁anyway	-11.8301
getInitParameter	-11.8301
▁XMPP	-11.8301
▁extent	-11.8303
Normalizer	-11.8304
RNA	-11.8304
Assignable	-11.8305
inherited	-11.8307
stroke	-11.8308
Derived	-11.8309
STARTED	-11.831
getPrimaryKey	-11.831
ASN	-11.8313
▁QueryPos	-11.8313
putResult	-11.8313
OpenMode	-11.8314
Mat	-11.8314
lowerBound	-11.8317
▁dom	-11.8319
BITS	-11.832
Fetcher	-11.8321
TZ	-11.8322
▁adjusted	-11.8324
▁digester	-11.8324
timeStamp	-11.8327
persistent	-11.8327
▁128	-11.833
▁"?"	-11.8333
decrement	-11.8333
▁rdf	-11.8335
tool	-11.8339
ATTRIBUTES	-11.8345
getEncoded	-11.835
getLastModified	-11.8351
JMX	-11.8353
▁blockLength	-11.8353
▁parms	-11.8359
▁Maven	-11.8363
Actual	-11.8363
ard	-11.8369
▁deserializer	-11.8372
faxJob	-11.8374
▁overridden	-11.8379
Seg	-11.8384
mse	-11.8385
SIG	-11.8391
RP	-11.8391
LocalDate	-11.8394
setProject	-11.8397
Ob	-11.8398
getCustom	-11.8406
Hive	-11.8408
DataFormat	-11.841
EnumEEnum	-11.841
Profiles	-11.8412
▁alternate	-11.8413
getLineNumber	-11.8415
rectF	-11.8419
Perm	-11.8419
▁conflict	-11.842
▁stub	-11.842
FileChannel	-11.8422
pref	-11.8424
InstanceInfo	-11.8425
CAT	-11.8433
▁xctxt	-11.8434
▁ordering	-11.8435
▁dirty	-11.8436
Compute	-11.8437
setSource	-11.8438
▁restriction	-11.8438
▁startOffset	-11.8438
NewLine	-11.8441
ThreadLocal	-11.8442
vaultBaseUrl	-11.8442
parallel	-11.8442
Maven	-11.8442
broker	-11.8443
Assembly	-11.8443
transfer	-11.8443
minimum	-11.8444
fraction	-11.8444
▁operand	-11.8445
keep	-11.8445
tokenizer	-11.8446
basic	-11.8446
getNative	-11.8448
LocalVariable	-11.8451
ClientConfig	-11.8456
CommerceAddress	-11.8457
getPortlet	-11.8457
PU	-11.8461
▁rawType	-11.8466
SEG	-11.8467
getIs	-11.8468
LoggerFactory	-11.8469
statusCode	-11.8474
Activate	-11.8476
▁offline	-11.8476
▁deal	-11.8477
packages	-11.8481
CORE	-11.8484
coordinates	-11.8487
dns	-11.8494
got	-11.8495
dense	-11.8495
minutes	-11.8501
suspend	-11.8512
OpCode	-11.852
DIRECT	-11.852
FAIL	-11.8521
Acquire	-11.8522
Guacamole	-11.8522
Knowledge	-11.8522
Repositories	-11.8522
deprecated	-11.8522
scenario	-11.8522
BRACKET	-11.8522
Handling	-11.8522
SIBUuid	-11.8522
▁networkPipes	-11.8522
Mention	-11.8522
ー	-11.8522
Drag	-11.8522
TRANSPORT	-11.8522
▁DecimalFormat	-11.8522
zrk	-11.8522
▁'\"'	-11.8522
eadUnsignedShort	-11.8522
SSLSocketFactory	-11.8522
ascii	-11.8522
REPLACE	-11.8522
JsHdr	-11.8523
Trail	-11.8524
Budget	-11.8524
▁explicitly	-11.8524
MENU	-11.8525
Relational	-11.8527
paragraph	-11.8527
Dict	-11.8528
IZED	-11.8529
IdGenerator	-11.8531
MachineScaleSet	-11.8532
▁asyncHandler	-11.8532
▁lifecycle	-11.8533
Unix	-11.8534
▁analyzer	-11.8538
ListResultInner	-11.8539
edges	-11.854
HANDLER	-11.854
▁serialization	-11.8541
getFieldName	-11.8543
▁sdf	-11.8544
▁gold	-11.8544
UniqueId	-11.8545
XMLReader	-11.8548
blocking	-11.8548
WeekDay	-11.8549
reachable	-11.8551
▁JComponent	-11.8553
crop	-11.8555
getAccess	-11.8557
DONE	-11.8559
▁ConcurrentHash	-11.8559
Minus	-11.8564
DataTable	-11.8565
GT	-11.8565
TMP	-11.8566
Rendering	-11.8567
permissions	-11.8568
Gui	-11.8568
oldValue	-11.8578
▁grow	-11.8583
DocumentBuilder	-11.8583
isLeaf	-11.8584
"".	-11.8593
lineno	-11.8594
AttributeNames	-11.8598
▁minValue	-11.8601
Datatype	-11.8602
▁journal	-11.8603
▁propertyKey	-11.8603
derivY	-11.8604
Cli	-11.8605
▁lowerBound	-11.8606
BR	-11.8615
geo	-11.8616
numOf	-11.8619
▁certs	-11.8619
WRAP	-11.862
endOf	-11.8623
▁plot	-11.8624
▁bDisplayOption	-11.8631
Polling	-11.8633
▁cacheResult	-11.8634
fireEvent	-11.8635
▁become	-11.8639
▁cred	-11.864
▁Hadoop	-11.8641
getSubject	-11.8641
▁computed	-11.8641
prov	-11.8642
DefaultInstance	-11.8646
Signer	-11.8649
▁-->	-11.8651
▁general	-11.8652
SAX	-11.8653
▁unwrap	-11.8655
Includes	-11.8655
▁alternative	-11.8658
Generate	-11.8663
tyleable	-11.8664
prepend	-11.8666
▁radix	-11.8666
polygon	-11.8668
onComplete	-11.8671
getTopic	-11.8672
idle	-11.8673
ResponseHandler	-11.8674
Kernel	-11.8675
implement	-11.8676
zoom	-11.8677
must	-11.8677
payment	-11.8679
▁classNameId	-11.868
EXTRA	-11.8685
erAccess	-11.8685
▁writeTo	-11.869
roduced	-11.87
oauth	-11.8703
▁abstract	-11.8703
RequestParam	-11.8707
tionAccountName	-11.8707
SearchResults	-11.8708
perPage	-11.8708
BitSet	-11.8711
days	-11.8713
▁dto	-11.8715
Handled	-11.8719
ErrorResponse	-11.872
CAP	-11.8722
TypeLiteral	-11.8723
▁ULocale	-11.8727
Workplace	-11.8727
DisplayName	-11.8736
Slide	-11.8736
annotate	-11.8736
logback	-11.8745
supports	-11.8747
newHashSet	-11.8748
DYNAMIC	-11.8749
值	-11.8749
Traffic	-11.8749
Appearance	-11.8749
SQUARE	-11.8749
migration	-11.8749
Audience	-11.8749
PRIMARY	-11.8749
fingerprint	-11.8749
policies	-11.8749
▁alteredNode	-11.8749
ALIAS	-11.8749
BOTTOM	-11.8749
CREDENTIAL	-11.8749
Evidence	-11.8749
Explanation	-11.8749
pseudo	-11.8749
▁milliseconds	-11.8749
BUTTON	-11.8749
termination	-11.8749
▁SshException	-11.8749
▁sibling	-11.8749
pretty	-11.8749
个	-11.8749
CELL	-11.8749
getQPath	-11.8749
isErrorEnabled	-11.8749
article	-11.8749
BIGINT	-11.875
HELP	-11.875
PLAIN	-11.875
▁focus	-11.875
Colour	-11.8751
Most	-11.8751
setStyle	-11.8751
▁GeoPackage	-11.8752
▁dateFormat	-11.8753
commons	-11.8753
SETTINGS	-11.8753
▁prep	-11.8756
CDI	-11.8756
TableNames	-11.8757
etrieveFromCache	-11.8759
▁smaller	-11.8759
TimeSeries	-11.8761
Prepared	-11.8764
Expanded	-11.8767
SUM	-11.8768
absent	-11.8768
getPrimary	-11.877
Way	-11.8771
jpa	-11.8773
CharAt	-11.8774
Cred	-11.878
collDef	-11.8783
resize	-11.8784
tan	-11.8787
notEmpty	-11.8788
▁immediately	-11.8789
TaskAttempt	-11.8791
SECTION	-11.8797
SocketAddress	-11.8799
Waiting	-11.88
▁reporter	-11.8804
finer	-11.8805
REL	-11.8811
xpath	-11.8811
AsList	-11.8811
▁mismatch	-11.8819
uninstall	-11.882
ToWrite	-11.8821
DateRange	-11.8821
beanName	-11.8821
getFull	-11.8825
Salt	-11.8832
Guid	-11.8832
logError	-11.8836
▁jsonConfig	-11.8837
spanStart	-11.8841
2_0	-11.8841
OutputFormat	-11.8844
getArguments	-11.8847
isOpen	-11.8848
CodeSource	-11.8854
MC	-11.8855
ful	-11.8857
▁decompress	-11.8861
▁replaced	-11.8861
removeChild	-11.8862
ServletConfig	-11.8867
▁though	-11.8868
getGroupId	-11.8871
hit	-11.8876
getErrorCode	-11.8876
Require	-11.8876
PD	-11.8883
TokenType	-11.8884
addOption	-11.8887
▁cri	-11.8896
getSingle	-11.8898
================	-11.8899
pushObject	-11.8901
define	-11.8905
permit	-11.8909
sentence	-11.8911
LeafNode	-11.8912
Mixin	-11.8912
serial	-11.8912
Should	-11.8913
anchor	-11.8913
JobHandler	-11.8914
▁fout	-11.8917
rhs	-11.8918
jedis	-11.8919
checksum	-11.8921
wm	-11.8922
ommerceOrderItem	-11.8923
▁rsp	-11.8928
Concurrent	-11.8929
OutputPath	-11.893
▁enumConstant	-11.8932
isPublic	-11.8934
toBytes	-11.8936
ItemData	-11.8937
▁ListOperation	-11.8941
itr	-11.8941
formatMessage	-11.8941
LineNumber	-11.8941
tracker	-11.8944
href	-11.8945
▁observer	-11.8955
ByKey	-11.8956
Serialize	-11.8958
listen	-11.8961
Company	-11.8963
▁hostName	-11.8968
▁rowKey	-11.8969
Oid	-11.897
▁bufferSize	-11.8972
Analyze	-11.8972
▁dateTime	-11.8973
getPublic	-11.8975
nanos	-11.8978
CONNECT	-11.8979
more	-11.898
AREA	-11.8981
DISTRIBUTION	-11.8981
asJena	-11.8981
Residue	-11.8981
Occurrence	-11.8981
Surrogate	-11.8981
phrase	-11.8981
INTERFACE	-11.8981
QUEUE	-11.8981
Recipient	-11.8981
RecyclerView	-11.8981
é	-11.8981
DEFINITION	-11.8981
RANGE	-11.8981
prompt	-11.8981
▁bldr	-11.8981
Intensity	-11.8981
处理	-11.8981
parameterToPair	-11.8981
OWLAxiom	-11.8982
Allocation	-11.8982
('.',	-11.8982
Highlight	-11.8982
Emitter	-11.8982
ClientRequestId	-11.8982
ServiceFuture	-11.8982
money	-11.8982
▁'*'	-11.8982
▁aux	-11.8983
Deriv	-11.8983
PhysicalEntity	-11.8986
completed	-11.8986
Nonce	-11.8986
Protected	-11.8986
▁htmltree	-11.8987
tbn	-11.8987
getRows	-11.8987
UnknownHost	-11.8988
Training	-11.8989
Serv	-11.8989
putLong	-11.899
isNew	-11.899
enforce	-11.8991
▁miss	-11.8991
▁'+'	-11.8992
▁varName	-11.8992
Insertion	-11.8994
▁usual	-11.8994
OPT	-11.8997
Dead	-11.9001
evaluator	-11.9001
▁nice	-11.9001
addCode	-11.9002
unmodifiableMap	-11.9004
KNN	-11.9007
Aggregated	-11.9007
getBinary	-11.901
setLocation	-11.9012
ImageBorder	-11.9013
RDD	-11.9013
startDate	-11.9015
▁"1"	-11.9021
▁URLConnection	-11.9028
reserved	-11.903
SAXParser	-11.9031
tsdb	-11.9032
getProfile	-11.9035
pan	-11.9035
SocketFactory	-11.9037
▁entityCache	-11.9039
unpack	-11.9042
PartitionId	-11.9043
separatorChar	-11.9046
setFont	-11.905
bins	-11.905
cnt	-11.9053
▁kv	-11.9058
BatchStatus	-11.9064
RouteRequest	-11.9064
setFill	-11.9065
EndTag	-11.9067
weak	-11.9068
ipAddress	-11.9072
▁boundingBox	-11.9074
AdGroup	-11.9076
del	-11.9079
▁aggregation	-11.9081
QueryResponse	-11.9084
getResourceId	-11.9085
MetaClass	-11.9085
listIterator	-11.9093
TaskListener	-11.9093
DNS	-11.9093
StatusLine	-11.9096
▁declare	-11.9098
getPref	-11.91
declaration	-11.91
codec	-11.9106
currencyPair	-11.9107
TypeDeclaration	-11.911
Rep	-11.912
▁directories	-11.9126
▁findByUuid	-11.9127
oad	-11.9128
URLEncoder	-11.913
Initialize	-11.9133
512	-11.9139
isNotNull	-11.9139
SimpleAntlr	-11.9146
▁toReturn	-11.9147
secure	-11.9158
aggregate	-11.9158
memory	-11.9159
comparator	-11.9159
dependent	-11.9159
OU	-11.9159
beta	-11.9163
ITE	-11.9167
strHTML	-11.9169
THIN	-11.917
PropertyData	-11.9176
isDone	-11.9178
Foreign	-11.9179
▁preference	-11.9179
ResourceManager	-11.918
mount	-11.9183
fk	-11.9185
stackSize	-11.9189
Stroke	-11.9193
Iso	-11.9194
JobInfo	-11.9194
clock	-11.9199
▁mixin	-11.9205
Exclusion	-11.9214
RegEx	-11.9215
txn	-11.9218
ALLOW	-11.9219
Wiki	-11.9219
corpora	-11.9219
Axiom	-11.9219
Equivalent	-11.922
BATCH	-11.922
Introspector	-11.922
ROUND	-11.922
THRESHOLD	-11.922
determinant	-11.922
Embeddable	-11.922
Exponent	-11.922
Fluent	-11.922
Liberty	-11.922
NodeAgentSku	-11.922
ncluding	-11.922
▁according	-11.922
▁cellSizeInDp	-11.922
词	-11.922
Distributed	-11.922
audience	-11.922
physical	-11.922
VARIABLE	-11.922
Caching	-11.922
Parallelism	-11.922
octet	-11.922
▁blackHole	-11.922
variance	-11.922
Nearest	-11.922
FNC	-11.922
UDP	-11.922
checkRequiredTag	-11.922
Hot	-11.922
▁pRequestData	-11.922
ACCOUNT	-11.9221
Instantiat	-11.9221
messagingEngine	-11.9221
Mesh	-11.9221
Cron	-11.9221
RelativeLayout	-11.9221
ConfigProperty	-11.9222
primaryKey	-11.9222
Interest	-11.9222
HashSet	-11.9224
isInfinite	-11.9225
Skipping	-11.9225
▁styleClass	-11.9227
DomainName	-11.9228
SCHEME	-11.9228
MUL	-11.9231
DroppedException	-11.9233
Gene	-11.9233
Slider	-11.9233
talResultSetSize	-11.9234
MouseEvent	-11.9234
OrEmpty	-11.9235
BlockingQueue	-11.9235
ImmutableTerm	-11.9235
▁EnumSet	-11.9236
EQUALS	-11.9237
Emit	-11.9237
▁pathSegments	-11.9239
SiteInner	-11.9239
▁'='	-11.924
Unlock	-11.924
▁DataInputStream	-11.9241
▁DoubleMatrix	-11.9241
▁relativePath	-11.9241
CommerceRegion	-11.9242
WildcardType	-11.9242
RPT	-11.9244
pageContext	-11.9244
Lite	-11.9248
Review	-11.9248
▁Datanode	-11.9248
StartTag	-11.925
threads	-11.9259
inline	-11.9259
Lab	-11.9259
ResourceMetric	-11.926
▁mass	-11.9262
▁lc	-11.9263
maxAge	-11.9269
▁destDir	-11.927
snap	-11.927
{}",	-11.927
Maintenance	-11.9278
esourceException	-11.9285
Degrees	-11.9287
ProviderInfo	-11.9288
setAt	-11.9296
LeftChild	-11.9299
PGP	-11.93
▁InvalidKey	-11.9301
RuleInner	-11.9301
javascript	-11.9306
▁elapsed	-11.9306
▁formula	-11.9307
▁isFirst	-11.931
getPassword	-11.9311
tempDir	-11.9316
Rename	-11.9318
▁linked	-11.9322
ColumnFamily	-11.9327
▁retriev	-11.9329
▁sel	-11.933
Skill	-11.9337
▁scaling	-11.9344
▁texture	-11.9345
getFileName	-11.935
▁categories	-11.9359
keyPerson	-11.9366
CmsCategory	-11.9369
endTime	-11.9369
264	-11.937
DIV	-11.9371
CacheManager	-11.9378
ENABLE	-11.938
needs	-11.9388
watch	-11.9393
While	-11.9393
getContentType	-11.9394
detect	-11.9397
2.0	-11.9398
▁SIR	-11.9404
ually	-11.9405
background	-11.9407
binder	-11.9409
world	-11.9409
which	-11.9409
▁SIMP	-11.9412
analyze	-11.9414
HttpMessage	-11.9414
▁facet	-11.9414
amo	-11.9414
▁checkpoint	-11.9415
UIComponent	-11.9417
Combine	-11.9419
▁NodeUtil	-11.9425
▁userInfo	-11.9434
▁nor	-11.9437
CRI	-11.9437
EndpointsRequest	-11.9443
itter	-11.9448
getHostName	-11.9451
Keyspace	-11.9453
////////////////	-11.9455
similar	-11.9457
SipSession	-11.9458
exclusion	-11.9462
Instrument	-11.9462
PLACE	-11.9463
Consume	-11.9463
Bitcoin	-11.9463
DESCRIPTOR	-11.9463
STANDARD	-11.9463
CommerceShipping	-11.9463
RETRY	-11.9463
experiment	-11.9463
monomer	-11.9463
▁copied	-11.9463
Delegation	-11.9463
Stanza	-11.9463
UNDEFINED	-11.9463
Decision	-11.9463
OTHER	-11.9463
MESSAGING	-11.9463
pReqVars	-11.9463
▁having	-11.9463
websphere	-11.9463
isAlive	-11.9463
reactant	-11.9463
入	-11.9463
LAYOUT	-11.9464
('0'	-11.9464
POD	-11.9464
SCROLL	-11.9464
hull	-11.9464
StudyMetadata	-11.9464
visited	-11.9464
STEP	-11.9464
▁VoltType	-11.9465
▁caught	-11.9466
Webhook	-11.9466
▁bytesWritten	-11.9466
WeakReference	-11.9467
surface	-11.9468
▁classification	-11.9468
SAML	-11.9471
jwt	-11.9471
CRLF	-11.9471
organizationName	-11.9472
▁turn	-11.9473
MultiValue	-11.9473
CPRule	-11.9476
MG	-11.9476
CPAtt	-11.9477
Deployed	-11.9478
jndiName	-11.9478
Finally	-11.9478
ToBytes	-11.9485
Squared	-11.9485
Cart	-11.9486
StepExecution	-11.9487
▁timeInterval	-11.9488
rethrow	-11.949
▁timeUnit	-11.9492
getFullName	-11.9493
Savings	-11.9494
▁sslContext	-11.9495
UpdateObject	-11.9499
fromBytes	-11.9502
Forest	-11.9506
JsonParser	-11.9516
hdfs	-11.9517
▁xy	-11.9521
gzip	-11.9526
parseFloat	-11.953
Monitored	-11.9532
▁doGet	-11.9532
StackSize	-11.9534
▁pagination	-11.9537
PRINT	-11.9539
getTimeZone	-11.954
endElement	-11.9552
remoteAddress	-11.956
▁fetchByC	-11.9568
ImageView	-11.9569
intern	-11.957
isFull	-11.9572
ChronoField	-11.9573
▁remainder	-11.9576
checked	-11.9582
RootPath	-11.9585
rib	-11.9588
▁getValues	-11.9597
InstancesRequest	-11.9598
▁campaign	-11.9599
ValidationResult	-11.9603
calc	-11.9608
Installed	-11.9609
serializer	-11.9621
83	-11.9623
Deserialization	-11.9625
(10,	-11.9627
getProcess	-11.963
relationshipType	-11.963
getInternal	-11.9631
fast	-11.9638
▁shortName	-11.9639
parameterName	-11.9657
neighbor	-11.9662
getFS	-11.9662
upgrade	-11.9663
placeholder	-11.9664
registration	-11.9664
sigma	-11.9664
standard	-11.9665
BufferedImage	-11.9665
bug	-11.9666
padding	-11.9666
popup	-11.9667
UserGroup	-11.9669
getCategory	-11.967
signal	-11.9675
RootDir	-11.9679
Mult	-11.9682
kit	-11.9685
disabled	-11.9688
coll	-11.9696
configured	-11.9699
Else	-11.9708
Black	-11.9711
InMs	-11.9711
▁executed	-11.9712
Overlap	-11.9713
PIXEL	-11.9713
ABSTRACT	-11.9713
CHARACTER	-11.9713
discriminator	-11.9713
Collapse	-11.9713
Denominator	-11.9713
Spacing	-11.9713
compilation	-11.9713
dedicated	-11.9713
spatial	-11.9713
DIGIT	-11.9713
Molecule	-11.9713
Trivial	-11.9713
capitalize	-11.9713
diagnostic	-11.9713
mechanism	-11.9713
migrate	-11.9713
satisfied	-11.9713
▁improve	-11.9713
▁recurse	-11.9713
▁slave	-11.9713
COOKIE	-11.9713
translator	-11.9713
に	-11.9713
加	-11.9713
▁macro	-11.9713
本	-11.9714
InternalEObject	-11.9714
glyph	-11.9714
deferred	-11.9714
Unmarshaller	-11.9714
BLACK	-11.9714
▁MDC	-11.9714
Netty	-11.9714
▁power	-11.9714
COLON	-11.9714
Compose	-11.9714
Recent	-11.9715
METADATA	-11.9715
MARKER	-11.9715
▁rtn	-11.9716
▁allocation	-11.9716
▁gather	-11.9717
invalidate	-11.9718
COUNTER	-11.9719
Subsystem	-11.9719
getResourceUrl	-11.972
▁OvhOrder	-11.972
PAY	-11.972
spliterator	-11.9721
setMin	-11.9721
▁likely	-11.9722
DimFilter	-11.9722
Undefined	-11.9723
ProfileRequest	-11.9723
▁hack	-11.9724
FIX	-11.9724
Symbolic	-11.9725
workplace	-11.9727
YES	-11.9727
Cleaner	-11.9728
InSeconds	-11.9735
ResponseWriter	-11.9737
getFilename	-11.9742
▁ColumnInfo	-11.9743
contract	-11.9746
alive	-11.975
▁argTypes	-11.9751
Explorer	-11.976
appfw	-11.976
HashCode	-11.976
webapp	-11.9764
▁StreamResult	-11.9764
[]{"	-11.9765
▁CasWebflowCon	-11.9766
▁synchronize	-11.9768
ProgressListener	-11.9768
pom	-11.9774
▁uv	-11.9775
("*")	-11.9776
ReferenceCode	-11.9784
issues	-11.9785
charCount	-11.9793
93	-11.9798
MultiPoint	-11.9806
Requires	-11.9813
Reducer	-11.982
PrimitiveType	-11.9823
▁(;;)	-11.9823
()>0)	-11.9823
getUuid	-11.9834
poolId	-11.9837
credential	-11.9837
PaddingException	-11.9842
TextNode	-11.9845
sock	-11.9847
StrUtil	-11.9847
monitoring	-11.9857
publicKey	-11.9858
DateTimeZone	-11.9868
deriv	-11.9868
AutoScaling	-11.9872
fromIndex	-11.9882
▁reuse	-11.9888
exchangeService	-11.9894
UserID	-11.9898
ICON	-11.9916
numerator	-11.9918
assigned	-11.9919
WorkplaceManager	-11.9924
routing	-11.9927
Unchecked	-11.9927
ldap	-11.9929
timezone	-11.993
either	-11.993
OrEqual	-11.9931
NullPointer	-11.9932
machine	-11.9932
deep	-11.9934
ByteBuf	-11.9934
BeanO	-11.9938
receiver	-11.9939
RuleSet	-11.994
issuer	-11.9942
Anim	-11.9945
▁classDef	-11.9954
▁moment	-11.9965
ThreadGroup	-11.9965
Logic	-11.9968
bdalib	-11.9969
Thumbnail	-11.9969
Convention	-11.997
Guaranteed	-11.997
Density	-11.997
MISSING	-11.997
PARTITION	-11.997
Snippet	-11.997
TOPOLOGY	-11.997
sensitive	-11.997
Jetty	-11.997
Lease	-11.997
OVERRIDE	-11.997
Retain	-11.997
Wake	-11.997
▁executing	-11.997
DIGEST	-11.997
REDUCE	-11.997
quiet	-11.997
CURLY	-11.997
Foreground	-11.997
coverage	-11.997
proposal	-11.997
▁SecureRandom	-11.997
CPOptionCategory	-11.997
Robot	-11.997
一个	-11.997
PLUS	-11.997
lexerEngine	-11.997
▁'{'	-11.997
▁AstNode	-11.997
Feedback	-11.9971
IoSession	-11.9971
quad	-11.9971
▁smallest	-11.9971
Sku	-11.9971
▁ScriptRuntime	-11.9971
PendingIntent	-11.9971
DISABLED	-11.9972
Incorrect	-11.9973
▁dayOfMonth	-11.9973
attributeValue	-11.9973
Doclet	-11.9975
▁But	-11.9975
PlayerSession	-11.9975
▁HttpPost	-11.9976
suspended	-11.9982
PMeasurementUnit	-11.9985
doFinal	-11.9985
UAL	-11.9985
▁beginUpdate	-11.9987
ByteChannel	-11.9993
beanId	-11.9994
setFeature	-11.9994
XmlGenerator	-11.9996
currentChar	-12
CPD	-12.0002
▁qName	-12.0005
Jpa	-12.0007
Trade	-12.0008
CellStyle	-12.0009
TaskTracker	-12.0011
ServiceCall	-12.0013
firstChild	-12.0014
▁who	-12.0016
discount	-12.002
ZK	-12.0024
CallExpression	-12.0028
▁formData	-12.0031
indexes	-12.0033
bmd	-12.0043
xFFFF	-12.0048
Escaped	-12.005
getIts	-12.0053
▁{0}"	-12.0054
▁headerValue	-12.0065
canRead	-12.0068
Finding	-12.0068
localhost	-12.0069
prog	-12.0071
Versioned	-12.0072
priv	-12.0073
getHostAddress	-12.0078
ClasspathElement	-12.0079
xmlns	-12.0094
GroupMembers	-12.0096
Formatted	-12.01
tempFile	-12.0103
escaped	-12.0103
getColumnName	-12.0111
Expires	-12.0115
UID	-12.0117
getLayer	-12.0131
tachedKeyPersons	-12.014
QueueEntry	-12.0146
void	-12.0149
These	-12.015
Mirror	-12.015
VariableName	-12.0153
Claim	-12.0153
▁finalize	-12.0158
▁collectionName	-12.0165
setContentType	-12.0171
▁Reflect	-12.0176
▁projectName	-12.0182
InstanceType	-12.0187
Hierarchical	-12.0197
supplier	-12.0197
unicode	-12.0197
wave	-12.0197
managed	-12.0198
difference	-12.0198
dependencies	-12.0198
createOrUpdate	-12.0199
when	-12.0199
evt	-12.0202
TLS	-12.0203
▁Gitlab	-12.0204
drawer	-12.0222
setAuto	-12.0223
▁belong	-12.0224
ready	-12.0226
bracket	-12.023
spring	-12.023
ayOfMonth	-12.0231
beanClass	-12.0231
Elastic	-12.0233
OperatingSystem	-12.0233
WRONG	-12.0233
Dense	-12.0233
LessThan	-12.0233
STORAGE	-12.0233
participant	-12.0233
则	-12.0233
Alphabet	-12.0233
BUCKET	-12.0233
Communication	-12.0233
Corpus	-12.0233
Hibernate	-12.0233
Inference	-12.0233
MAGIC	-12.0233
Writing	-12.0233
anonymous	-12.0233
federated	-12.0233
▁FIXME	-12.0233
PUBLISH	-12.0233
Reached	-12.0233
▁Quad	-12.0233
Vulnerability	-12.0233
Yaml	-12.0233
する	-12.0233
ALPHA	-12.0233
类型	-12.0233
jaxb	-12.0233
Protection	-12.0233
CONSTANT	-12.0233
TRIPLETS	-12.0233
が	-12.0233
方法	-12.0233
Crud	-12.0233
EXIT	-12.0233
▁AtomicInteger	-12.0233
bank	-12.0233
▁appl	-12.0234
elastic	-12.0234
IoBuffer	-12.0235
Svc	-12.0236
Miss	-12.0237
PolymerNotation	-12.0238
▁MutableBoolean	-12.0238
▁unless	-12.0239
getMinimum	-12.0241
CONF	-12.0241
feedback	-12.0242
setWidth	-12.0244
transient	-12.0244
unmodifiableSet	-12.0246
Combined	-12.0247
▁displayDate	-12.0249
READY	-12.0252
▁expanded	-12.0254
▁detected	-12.0255
SQLite	-12.0255
NotAvailable	-12.0255
ListAccountRel	-12.0258
▁higher	-12.0259
SITE	-12.0262
▁inbound	-12.0262
chron	-12.0264
deflate	-12.0266
HINT	-12.0267
OnClickListener	-12.027
ChunkSize	-12.027
Bounded	-12.0272
NET	-12.0273
Released	-12.0273
onNext	-12.0273
FileFilter	-12.0273
Daemon	-12.0275
_2=	-12.0277
ForNull	-12.0278
▁salt	-12.0279
getPolymer	-12.0283
RootCause	-12.0288
Documentation	-12.0292
StorePackage	-12.0297
GROUPS	-12.0297
getYear	-12.0311
recent	-12.0312
countDown	-12.0314
▁sur	-12.0324
getContextPath	-12.0333
charge	-12.0335
▁paramName	-12.0338
Converted	-12.0338
BytesRead	-12.0342
▁injection	-12.0353
Proxies	-12.0356
getDefaultValue	-12.0359
800	-12.0359
scheduled	-12.036
setBorder	-12.0386
PDB	-12.039
("\\."	-12.0396
▁appendTo	-12.0405
Recording	-12.0406
IES	-12.0408
ItemCount	-12.0409
arity	-12.0411
Reconnect	-12.0412
semantic	-12.0412
cron	-12.0422
getPrecision	-12.0423
WriteLock	-12.0425
serialized	-12.0427
ShortName	-12.0435
propertyValue	-12.0437
statistics	-12.0451
3_0	-12.0454
umBands	-12.046
logout	-12.0462
lz	-12.0465
func	-12.0468
joining	-12.047
Rotate	-12.0474
specific	-12.0475
floatValue	-12.0475
clause	-12.0475
choice	-12.0476
Shards	-12.0476
since	-12.0478
serialization	-12.0479
ServiceRef	-12.0487
interceptor	-12.0488
received	-12.0488
mmd	-12.0488
DataInput	-12.0489
derive	-12.0491
getPrevious	-12.0491
cpDefinition	-12.0491
Recover	-12.0496
ICAL	-12.0496
Confirm	-12.0498
recipient	-12.0501
UNSIGNED	-12.0503
字	-12.0503
FRAGMENT	-12.0503
getElementsByTag	-12.0503
▁XtextPackage	-12.0503
存在	-12.0503
Anonymous	-12.0503
Favorite	-12.0503
Suspend	-12.0503
Synonym	-12.0503
establish	-12.0503
reservoir	-12.0503
throttle	-12.0503
Introspection	-12.0503
Invitation	-12.0503
MASTER	-12.0503
MEMORY	-12.0503
MovieDbException	-12.0503
Smooth	-12.0503
outstanding	-12.0503
▁deletion	-12.0503
▁guarantee	-12.0503
▁purpose	-12.0503
Activities	-12.0503
Correlation	-12.0503
HOME	-12.0503
corrupt	-12.0503
kryo	-12.0503
Aromatic	-12.0503
BASIC	-12.0503
Presence	-12.0503
ENDIAN	-12.0503
dWordsServices	-12.0503
yyyy	-12.0503
Flux	-12.0503
robot	-12.0503
MUST	-12.0503
Speed	-12.0503
后	-12.0504
▁ReflectionUtils	-12.0504
CommerceShipment	-12.0504
Offerings	-12.0504
ASSIGN	-12.0504
aaauser	-12.0504
umanSubjects	-12.0505
nesting	-12.0505
Later	-12.0507
Permutation	-12.0508
▁hints	-12.0509
▁SMB	-12.0509
▁incorrect	-12.0509
OOM	-12.0509
▁Let	-12.0509
union	-12.0512
webElement	-12.0515
accessor	-12.0515
ControlFlow	-12.0515
scheduler	-12.0515
setIcon	-12.0515
highlight	-12.0517
▁HttpGet	-12.0519
setLabel	-12.0519
vote	-12.052
MIS	-12.052
▁LongTuple	-12.0521
▁CmsContainer	-12.0521
inspect	-12.0522
▁WComponent	-12.0524
▁HttpEntity	-12.0524
Assigned	-12.0525
Locking	-12.0525
PropertyChange	-12.053
ARC	-12.0534
FlowDefinition	-12.0536
getColumnIndex	-12.0536
CmsContainerPage	-12.0537
DELETED	-12.0538
Hea	-12.0538
Iterate	-12.0544
Calling	-12.0544
ToByteArray	-12.0545
▁wasn	-12.0547
FeatureCall	-12.055
explorer	-12.0555
guid	-12.0563
PrefixLength	-12.0564
TimeStamp	-12.057
responseBody	-12.0573
Cont	-12.0573
▁chk	-12.0573
loss	-12.0573
Neighbors	-12.0576
Saved	-12.0577
BigQuery	-12.0581
▁checkIf	-12.0582
CellValue	-12.0584
CurrentProject	-12.0586
clz	-12.0589
Viewport	-12.0591
Arch	-12.0592
("?")	-12.0593
DOC	-12.0598
▁bundleContext	-12.0601
proj	-12.0603
▁searcher	-12.0604
CDATA	-12.061
▁extracted	-12.0614
▁readFrom	-12.0616
▁operands	-12.0619
Heading	-12.0621
▁getCached	-12.0621
CPOptionValue	-12.0622
createWidget	-12.063
tasklet	-12.0631
▁360	-12.0633
Sampler	-12.0638
appName	-12.0638
Bool	-12.064
isDigit	-12.0641
removeAttribute	-12.0642
getInterfaces	-12.0646
setTransaction	-12.065
LowerBound	-12.0652
LoggingEvent	-12.0654
ummer	-12.0655
▁sparse	-12.0655
freq	-12.0655
▁jms	-12.0657
JobID	-12.0657
cycle	-12.066
▁iface	-12.0662
rating	-12.0665
sys	-12.0666
Age	-12.0666
Kit	-12.0669
▁neighbors	-12.0669
Periodic	-12.0673
setDuration	-12.068
}\	-12.0684
CommerceAccount	-12.0686
WaitTime	-12.0688
gisteredService	-12.069
noise	-12.069
Misc	-12.0696
Exterior	-12.0701
SimpleName	-12.0705
lifecycle	-12.0709
setActive	-12.071
readUTF	-12.0714
ZoneOffset	-12.072
Polymer	-12.0723
▁atomic	-12.0725
Scaling	-12.0742
getErrorMessage	-12.0746
authenticate	-12.0749
increase	-12.0754
operand	-12.076
queries	-12.076
browser	-12.0761
blob	-12.0761
ticket	-12.0761
click	-12.0761
127	-12.0762
behavior	-12.0762
patch	-12.0763
leaf	-12.0764
obtain	-12.0765
unexpected	-12.0766
Targeting	-12.0773
large	-12.0773
vpn	-12.0774
visitor	-12.0775
Excluded	-12.0779
executable	-12.078
Affinity	-12.0781
INVOKE	-12.0781
Evaluate	-12.0781
COMMIT	-12.0781
Experiment	-12.0781
AUTHENTICATION	-12.0781
Album	-12.0781
Article	-12.0781
Scheduling	-12.0781
Coordinator	-12.0781
Eviction	-12.0781
Octet	-12.0781
QueryNotices	-12.0781
SLASH	-12.0781
denominator	-12.0781
inventory	-12.0781
misExtensionType	-12.0781
polyline	-12.0781
yield	-12.0781
Denied	-12.0781
Mount	-12.0781
PROGRESS	-12.0781
VERTICAL	-12.0781
▁ledger	-12.0781
Movie	-12.0781
REVERSE	-12.0781
AVIM	-12.0781
▁Jdk	-12.0781
ifModifiedSince	-12.0781
▁much	-12.0781
Board	-12.0781
EXPIRE	-12.0781
CmsPermissionSet	-12.0781
nvoking	-12.0781
CoreSPI	-12.0782
getStructureId	-12.0782
%1$	-12.0782
JavaFileObject	-12.0782
sizeInBytes	-12.0782
mongo	-12.0782
▁cnx	-12.0783
LOWER	-12.0783
Outgoing	-12.0783
outcome	-12.0783
▁agg	-12.0783
▁largest	-12.0783
cfg	-12.0783
itsId	-12.0785
SCAN	-12.0785
servletContext	-12.0785
Extraction	-12.0785
docker	-12.0787
Compressed	-12.0788
JCTree	-12.079
Provided	-12.079
KeyGenerator	-12.0792
datastore	-12.0793
DDF	-12.0793
Warn	-12.0794
ntk	-12.0794
getPageSize	-12.0795
bill	-12.0795
SelectEClass	-12.0797
▁basicSet	-12.0798
Equality	-12.08
Inode	-12.0801
▁parentScreen	-12.0801
neededFields	-12.0804
▁EChange	-12.0806
serverConfig	-12.0807
implies	-12.0808
Spark	-12.0808
▁prob	-12.0809
128	-12.0811
setStroke	-12.0812
Quoted	-12.0812
Synchronized	-12.0813
[8]	-12.0814
onClose	-12.0816
producer	-12.0816
▁assertion	-12.0816
authorize	-12.0817
TimeOfDay	-12.0822
udf	-12.0825
setUse	-12.0828
saved	-12.0829
nio	-12.0836
▁extractor	-12.0838
▁forced	-12.0838
ValuesHolder	-12.0842
ERA	-12.0845
DBCluster	-12.0846
writeLine	-12.0852
urlEncode	-12.0859
curve	-12.0859
TaskState	-12.086
bad	-12.0864
▁48	-12.0865
Validating	-12.0865
')||(	-12.0869
▁slow	-12.0869
east	-12.087
readerIndex	-12.0872
RelationshipType	-12.0872
▁come	-12.0876
SEQ	-12.0885
125	-12.089
errorMsg	-12.0897
PREF	-12.0911
scanResult	-12.0914
FILES	-12.0915
dic	-12.0915
PropertiesInner	-12.0918
oAuth	-12.0919
▁sourceMethod	-12.0921
ersistenceBroker	-12.0924
JobBuilder	-12.0925
isRunning	-12.0937
CMA	-12.094
fade	-12.0953
Leader	-12.0959
FactoryBean	-12.0959
▁providerInfo	-12.0979
ContentHandler	-12.0983
UniqueID	-12.0993
BucketName	-12.0997
excluded	-12.0998
HH	-12.1002
JsonValue	-12.1009
Circuit	-12.1011
Associate	-12.1013
modifier	-12.1013
ommerceOrderNote	-12.1022
CreateObject	-12.1026
blocked	-12.1027
para	-12.1027
ratio	-12.1032
▁addition	-12.1045
AGE	-12.1046
readAll	-12.1047
synchronous	-12.1049
known	-12.1052
relationship	-12.1053
▁JBBP	-12.1054
holder	-12.1055
runner	-12.1055
runnable	-12.1055
inherit	-12.1056
hasPermission	-12.1057
decimal	-12.1058
Own	-12.1059
Interleaved	-12.1061
goog	-12.1066
Configurable	-12.1067
号	-12.1067
Mechanism	-12.1067
过	-12.1067
201808.	-12.1067
SPECIAL	-12.1067
stereo	-12.1067
▁labAccountName	-12.1067
▁vmScaleSetName	-12.1067
Backpressure	-12.1067
COLLECTION	-12.1067
EXPIRATION	-12.1067
HIGH	-12.1067
XmlPullParser	-12.1067
prolepticYear	-12.1067
reservation	-12.1067
study	-12.1067
▁CountDownLatch	-12.1067
▁affect	-12.1067
名	-12.1067
PLUGIN	-12.1067
bAddQuotes	-12.1067
severity	-12.1067
Tomcat	-12.1067
▁applied	-12.1067
Given	-12.1067
micro	-12.1067
查	-12.1067
CmsVaadin	-12.1067
Avro	-12.1067
CONCURRENT	-12.1067
Verifier	-12.1067
('>'	-12.1067
FixedOptionRel	-12.1068
setConstraintMax	-12.1068
▁terminated	-12.1068
Blur	-12.1068
instrumentation	-12.1068
Nonnegative	-12.1068
▁findByGroupId	-12.1068
Hide	-12.1068
(';'	-12.1068
Controllable	-12.1068
▁GBS	-12.1068
▁lowest	-12.1069
IsolationLevel	-12.1069
▁representation	-12.1069
netty	-12.1069
Whitelist	-12.1069
▁highest	-12.1069
▁exactly	-12.107
getOptionValue	-12.1071
dispatcher	-12.1071
big	-12.1073
TAB	-12.1074
▁neg	-12.1074
▁tries	-12.1076
HMAC	-12.1077
saml	-12.1077
JavaMember	-12.1078
▁Bbox	-12.1078
/2.0	-12.1079
Radi	-12.1079
cst	-12.108
DDL	-12.1081
jmx	-12.1081
but	-12.1081
▁extraction	-12.1082
decompose	-12.1084
pooled	-12.1087
[7]	-12.1087
▁Prc	-12.109
blockLength	-12.1091
getColumnCount	-12.1091
limitidentifier	-12.1092
▁rack	-12.1092
▁displayed	-12.1094
getLocalHost	-12.1096
▁minMax	-12.1096
Streamlet	-12.1097
ERC	-12.1097
Neg	-12.11
Intern	-12.1101
INDENT	-12.1103
AsDouble	-12.1107
Maker	-12.1108
RESOURCES	-12.111
▁CmsLock	-12.111
QueryParameters	-12.1112
SCORE	-12.1118
404	-12.1124
ExternalContext	-12.1125
CPU	-12.1125
appflow	-12.1127
toExternal	-12.1127
GatewayName	-12.1132
JobConf	-12.1134
setConstraint	-12.1137
NoResponse	-12.1142
Compliance	-12.1144
ServletPath	-12.1145
srcFile	-12.1159
Fold	-12.1164
codepoint	-12.1165
writeShort	-12.1169
dateStr	-12.1176
▁startPos	-12.1176
Joinable	-12.1176
UINT	-12.1177
AttributeSet	-12.1179
getJobID	-12.118
nnectedException	-12.1183
XPATH	-12.119
bufferSize	-12.1199
▁NotCo	-12.12
tableDef	-12.1201
CmsHistory	-12.1202
rawType	-12.1204
RecoveryPoint	-12.1208
Tld	-12.1209
ENUM	-12.1212
getBool	-12.1215
decl	-12.1216
SPI	-12.1217
SortOrder	-12.1217
ItsId	-12.122
outputFile	-12.1229
ToCheck	-12.1229
RAW	-12.1235
currentWord	-12.1242
jobSpec	-12.1256
support	-12.1258
Permit	-12.1262
exist	-12.1265
▁processInstance	-12.1267
dateTime	-12.1278
Bl	-12.128
receive	-12.1281
tip	-12.1286
Searcher	-12.1309
Stateful	-12.1309
StateChange	-12.1318
▁deleteresource	-12.1325
absolutePath	-12.1325
findOne	-12.1332
arrow	-12.1332
Superclass	-12.1333
readFields	-12.1336
▁Datagram	-12.1342
ordered	-12.1346
Allocate	-12.1348
nextDouble	-12.1351
revision	-12.1355
slash	-12.1357
lazy	-12.1358
Alluxio	-12.1358
TableMetadata	-12.1358
positive	-12.1358
letter	-12.1359
small	-12.136
TiffTags	-12.1361
Social	-12.1361
し	-12.1361
▁diagram	-12.1361
Authenticator	-12.1361
DoesNotExist	-12.1361
EXTENDED	-12.1361
Expiry	-12.1361
Identifiable	-12.1361
Skeleton	-12.1361
Exceeded	-12.1361
Sequential	-12.1361
correlationId	-12.1361
inclusive	-12.1361
Rollout	-12.1361
ENGINE	-12.1361
▁changing	-12.1361
Swagger	-12.1361
numCoords	-12.1361
mitiveInvalidity	-12.1361
jobFlowInstances	-12.1361
collapse	-12.1361
▁BusPr	-12.1361
▁mouse	-12.1361
pull	-12.1361
STACK	-12.1361
▁traverser	-12.1362
▁predicted	-12.1362
Bookmark	-12.1362
POSITE	-12.1362
glob	-12.1362
Committed	-12.1362
CompilationUnit	-12.1363
Drawer	-12.1365
Rich	-12.1366
Azure	-12.1366
Rejected	-12.1367
▁ValueComparator	-12.1367
DAV	-12.1368
Storm	-12.1369
ganizationalUnit	-12.1369
Unary	-12.137
ZoomLevel	-12.137
▁wrt	-12.137
QUALITY	-12.1372
annotated	-12.1372
XSLT	-12.1372
drag	-12.1374
Encrypted	-12.1375
spinner	-12.1376
bytesRead	-12.1377
▁messageDigest	-12.138
▁larger	-12.1381
▁IntStream	-12.1381
weeks	-12.1383
ToUse	-12.1384
fontSize	-12.1385
Jid	-12.1385
Granted	-12.1388
CompositeNode	-12.1388
ipaddress	-12.1391
anim	-12.1392
▁THE	-12.1392
extend	-12.1394
sCharacterId	-12.1395
SPARSE	-12.1397
Gate	-12.14
JobInner	-12.1401
interaction	-12.1402
DocTree	-12.1403
▁made	-12.1404
cost	-12.1405
▁srv	-12.1406
raid	-12.1407
markup	-12.1414
RightChild	-12.1415
▁httpResponse	-12.1416
JWT	-12.1418
FileExtension	-12.142
Freq	-12.1422
DER	-12.1425
CharArray	-12.1428
RunState	-12.1429
DeletedKey	-12.143
▁')'	-12.1432
subscriber	-12.1437
aligned	-12.1443
▁argout	-12.1444
srcMem	-12.1447
May	-12.1449
▁expectedValue	-12.1452
▁moved	-12.1454
keywords	-12.1457
▁complex	-12.1459
StoreResource	-12.1468
LET	-12.1468
GeometryIndex	-12.1473
rightChild	-12.1485
▁OvhTask	-12.1486
▁repositoryName	-12.1488
▁maxY	-12.1505
bitCount	-12.1506
stem	-12.1508
▁maxLength	-12.1512
anConsume	-12.152
▁tau	-12.1521
spanEnd	-12.1527
getWrapped	-12.1528
Cond	-12.1539
▁genericType	-12.1543
Caused	-12.1547
readEntity	-12.1548
▁'%'	-12.1563
("]"	-12.1567
subnet	-12.1569
CmsGroup	-12.157
EndpointInfo	-12.1574
****************	-12.158
mapWidget	-12.1586
storeName	-12.1587
Mill	-12.159
▁authenticated	-12.1597
topLevel	-12.16
Reaction	-12.1624
ecurityException	-12.1637
GroupMember	-12.1637
Manage	-12.164
Phone	-12.164
jndi	-12.1645
zipFile	-12.1648
Subtype	-12.1648
MILLISECOND	-12.1654
Choose	-12.1655
HeaderNames	-12.1658
SipApplication	-12.166
MANAGE	-12.166
White	-12.1661
Rewrite	-12.1662
trust	-12.1663
Hole	-12.1664
Comma	-12.1664
Assistant	-12.1664
compensation	-12.1664
使用	-12.1664
Azkaban	-12.1664
Collision	-12.1664
生成	-12.1664
Pressed	-12.1664
earliest	-12.1664
purchase	-12.1664
Hessian	-12.1664
NANOSECONDS	-12.1664
Obtain	-12.1664
magnitude	-12.1664
surrogate	-12.1664
themeResourceId	-12.1664
▁bRelationKnown	-12.1664
▁diameter	-12.1664
PATCH	-12.1664
Sphere	-12.1664
TENSOR	-12.1664
▁watermark	-12.1664
SmushingRule	-12.1664
citygml	-12.1664
commerceShipping	-12.1664
BREAK	-12.1664
readableBytes	-12.1664
COPY	-12.1664
对	-12.1664
Citation	-12.1664
Singular	-12.1664
third	-12.1664
▁SecretKeySpec	-12.1664
▁why	-12.1664
▁cnfe	-12.1664
SMALL	-12.1664
▁Tmdb	-12.1664
这	-12.1664
skew	-12.1664
▁'}'	-12.1664
AGENT	-12.1664
SpecialReview	-12.1664
supportedCiphers	-12.1664
▁'?'	-12.1664
VARCHAR	-12.1665
SizeInBytes	-12.1665
▁RectF	-12.1665
AlreadyExists	-12.1665
water	-12.1665
▁workbook	-12.1666
==-1)	-12.1666
Customizer	-12.1667
Stopping	-12.1668
▁sipApplication	-12.1668
KEYWORD	-12.1668
COMPAR	-12.1669
Credit	-12.1669
GRAN	-12.1669
▁ServiceLoader	-12.167
broadcast	-12.167
rotation	-12.1671
envelope	-12.1671
manifest	-12.1671
threshold	-12.1671
strategy	-12.1672
partial	-12.1672
▁hmac	-12.1672
xxx	-12.1672
will	-12.1673
CmdLine	-12.1673
1900	-12.1674
AddressRel	-12.1674
Gray	-12.1679
▁Inter	-12.1681
▁odd	-12.1681
▁needle	-12.1682
Detected	-12.1685
▁acquired	-12.1689
ENV	-12.169
▁please	-12.1692
GONE	-12.1693
MINUTES	-12.1693
2000	-12.1695
ScanResult	-12.1698
EditLog	-12.1701
ToShow	-12.1702
▁'<'	-12.1702
renderer	-12.1707
CMP	-12.1708
grp	-12.1709
▁published	-12.1709
SymbolTable	-12.1712
▁bbox	-12.1714
Grpc	-12.1717
Marked	-12.1718
CHARS	-12.1722
callable	-12.1724
WorkerInfo	-12.1725
concatMap	-12.1726
binarySearch	-12.173
tracking	-12.1731
▁renderContext	-12.1735
Requirements	-12.1736
▁accepted	-12.1737
mdc	-12.1737
Never	-12.1739
Recycl	-12.174
recover	-12.1747
tsym	-12.1749
REVIEW	-12.175
▁'('	-12.1755
Chunked	-12.1757
may	-12.1758
postag	-12.1761
ransac	-12.1762
▁classWriter	-12.1766
rowJ	-12.1767
pub	-12.1769
utomationAccount	-12.1774
OutputKey	-12.1777
▁appro	-12.1777
webApp	-12.1778
decoded	-12.1781
getQueryString	-12.1783
BackgroundColor	-12.1792
▁reported	-12.1793
deregister	-12.1796
helm	-12.1799
▁dow	-12.1806
Yes	-12.1807
MOR	-12.1812
toUri	-12.1819
CheckResult	-12.1821
HttpSession	-12.1831
blue	-12.1845
RING	-12.1847
Warp	-12.1857
UserAttributes	-12.1863
getChronology	-12.1865
("0"	-12.1866
Computer	-12.1873
WEST	-12.1876
executeAsync	-12.1884
SimpleType	-12.1896
containerId	-12.1898
EAR	-12.1909
svc	-12.1909
checkbox	-12.1912
chargingStation	-12.192
▁cpOption	-12.1923
LatLng	-12.1926
writeUTF	-12.1927
isAbstract	-12.1946
Each	-12.1946
isFolder	-12.1952
IsNull	-12.1953
114	-12.197
Deliver	-12.1971
factoryAppBeans	-12.1976
解	-12.1976
tunnel	-12.1976
velocity	-12.1976
Bitfinex	-12.1976
synonym	-12.1976
▁aEasterSunday	-12.1976
CLUSTER	-12.1976
Coefficient	-12.1976
FORWARD	-12.1976
Initializing	-12.1976
Multiplier	-12.1976
Mutex	-12.1976
eclipse	-12.1976
reenPepperServer	-12.1976
snippet	-12.1976
▁earlier	-12.1976
CONDITION	-12.1976
DIALOG	-12.1976
KILL	-12.1976
Kripton	-12.1976
STOPPED	-12.1976
INCREMENT	-12.1976
ProcessAdvice	-12.1976
morph	-12.1976
rustedAdvisor	-12.1976
tabbedPane	-12.1976
▁sdkHeaders	-12.1976
JSDocInfo	-12.1976
('\''	-12.1976
telephony	-12.1976
以	-12.1976
middleware	-12.1976
vaultName	-12.1977
▁tmdb	-12.1977
During	-12.1977
getScreenField	-12.1977
MTAS	-12.1977
STAGE	-12.1977
Manual	-12.1977
▁BoxRequests	-12.1977
▁daylight	-12.1977
IEntityGroup	-12.1977
Subtract	-12.1978
XXX	-12.1978
RUNTIME	-12.1978
Prime	-12.1978
Lowest	-12.1978
PopupMenu	-12.1978
▁PortalException	-12.1978
MsgPhrase	-12.1979
PROCESSING	-12.1979
getAndSet	-12.1979
ZWave	-12.198
▁Sftp	-12.198
▁IntTuple	-12.198
Dsl	-12.1981
crud	-12.1981
▁skipping	-12.1981
DETAILS	-12.1983
MotionEvent	-12.1983
▁"|"	-12.1984
▁errMsg	-12.1984
isSingle	-12.1984
closeConnection	-12.1985
▁xsd	-12.1986
▁zos	-12.1987
▁SISession	-12.1987
▁acceptor	-12.1992
▁outbound	-12.1992
repeat	-12.1992
Subspace	-12.1992
resume	-12.1992
dialect	-12.1992
alignment	-12.1993
stopwatch	-12.1994
getOrCreate	-12.1994
maybe	-12.1994
nested	-12.1994
▁insn	-12.1997
through	-12.1997
CertificateOrder	-12.1997
▁TypeInformation	-12.1997
team	-12.1998
getContentLength	-12.1999
getRequestURI	-12.1999
DatePicker	-12.2
Conv	-12.2
MemorySegment	-12.2002
connector	-12.2006
▁JButton	-12.2006
iteration	-12.2007
▁prefixes	-12.2007
▁JLabel	-12.2009
overwrite	-12.201
BlockMeta	-12.201
GSS	-12.201
wipe	-12.2011
▁ObjectAnimator	-12.2011
HOURS	-12.2017
tmpDir	-12.2019
▁linear	-12.202
dInstanceState	-12.2023
CryptoKey	-12.2024
easonPhrase	-12.2024
CPDefinitionLink	-12.2029
doOn	-12.2031
CmsContextMenu	-12.2035
tworkWatcherName	-12.2036
▁10000	-12.2038
Four	-12.2041
Located	-12.2052
Zk	-12.2058
isStarted	-12.2062
160	-12.2066
LocalService	-12.2067
IDLE	-12.208
Cql	-12.2091
setAlignment	-12.2092
OutputDir	-12.2097
pdf	-12.2108
▁opening	-12.2113
isLetter	-12.2114
actualValue	-12.2123
▁publisher	-12.2123
inputShape	-12.2126
TimeOut	-12.213
▁tbl	-12.2141
ENC	-12.2151
WindowState	-12.216
NotExist	-12.2164
Fit	-12.2167
Opening	-12.2168
lationalDatabase	-12.2169
InputHandler	-12.2177
RowKey	-12.2184
SuperType	-12.2189
sslConfig	-12.22
Degree	-12.2208
DeviceDefinition	-12.2208
Fat	-12.2215
align	-12.2215
CLI	-12.2238
▁preserve	-12.2253
-16	-12.2256
XPathContext	-12.2256
stringTo	-12.2259
▁reach	-12.2264
JE	-12.228
attributeValues	-12.2281
privateKey	-12.2284
decrease	-12.2285
NamespaceContext	-12.2287
Drive	-12.2288
Interrupt	-12.2289
RLP	-12.2291
▁reserve	-12.2292
Walk	-12.2293
Thin	-12.2295
observation	-12.2296
Monetary	-12.2299
Discrete	-12.2299
setOwner	-12.2299
Characteristic	-12.2299
CloudSpanner	-12.2299
abbrev	-12.2299
calculator	-12.2299
jenkins	-12.2299
natural	-12.2299
Approval	-12.2299
Corrupt	-12.2299
Parcelable	-12.2299
Tunnel	-12.2299
▁chosen	-12.2299
CONTINUE	-12.2299
Gobblin	-12.2299
Gravity	-12.2299
RADIUS	-12.2299
STRATEGY	-12.2299
Symmetry	-12.2299
WaterMark	-12.2299
deleteOnExit	-12.2299
▁ndFl	-12.2299
FunctionalTerm	-12.2299
Leave	-12.2299
VpnGateway	-12.2299
learning	-12.2299
▁updating	-12.2299
▁verification	-12.2299
Arbitra	-12.2299
PERIOD	-12.2299
rewind	-12.2299
TRACK	-12.2299
Forecast	-12.2299
▁BiConsumer	-12.2299
Beginning	-12.2299
decorate	-12.2299
了	-12.2299
-2$	-12.2299
identityHashCode	-12.2299
▁volatile	-12.2299
CQL	-12.2299
SPLIT	-12.2299
Authorizer	-12.2299
▁TTIOException	-12.2299
yaml	-12.2299
Authorities	-12.2299
▁JAXBContext	-12.2299
Spider	-12.2299
▁ImageGray	-12.23
Cfg	-12.23
antlr	-12.23
BackupVault	-12.23
bigDecimal	-12.23
Swing	-12.23
MatchResult	-12.23
Intersection	-12.2301
FORMATTER	-12.2301
stdout	-12.2301
Both	-12.2301
portletWindowId	-12.2302
▁thus	-12.2302
▁rslt	-12.2303
Successfully	-12.2303
Polyline	-12.2303
ScheduledFuture	-12.2303
EXC	-12.2304
▁"@"	-12.2304
Notifier	-12.2304
▁ImageIO	-12.2304
FullyQualified	-12.2305
Traverser	-12.2305
evaluationTime	-12.2305
(')')	-12.2306
SELECTED	-12.2306
pfl	-12.2306
▁IoUtil	-12.2307
RateLimit	-12.2307
navigation	-12.2309
BUF	-12.231
deny	-12.2311
Terminated	-12.2311
▁logged	-12.2312
DataStoreFactory	-12.2314
xslt	-12.2315
signum	-12.2315
websocket	-12.2317
FleetRequest	-12.232
ControlAdapter	-12.2322
AnnotatedElement	-12.2322
Trusted	-12.2322
MultiPolygon	-12.2322
Aligned	-12.2322
▁past	-12.2323
▁';'	-12.2325
blank	-12.2326
heartbeat	-12.2326
Jinx	-12.2326
series	-12.2326
handshake	-12.2327
Amazon	-12.2327
populate	-12.2327
disk	-12.2328
▁persisted	-12.2329
specified	-12.2329
INTER	-12.233
▁tier	-12.233
unwrap	-12.2333
injector	-12.2333
▁classDesc	-12.2333
FontMetrics	-12.2335
backend	-12.2336
executorService	-12.234
NumericValue	-12.2347
connected	-12.2351
▁JinxException	-12.2354
▁iae	-12.236
whereClause	-12.2366
SegmentEntryRel	-12.2369
!=0)	-12.237
IReaction	-12.237
▁branchName	-12.237
room	-12.2371
AvailabilityZone	-12.2371
"},	-12.2375
Href	-12.2385
▁pem	-12.2393
HttpHeader	-12.2396
▁seem	-12.2398
COMPRESS	-12.2401
pageSize	-12.2401
EndpointGroup	-12.2405
▁initializer	-12.2406
▁Completable	-12.2409
LocalTransaction	-12.2412
▁stp	-12.2413
kvs	-12.2417
unavailable	-12.242
▁polling	-12.2421
ParseError	-12.2426
setter	-12.2432
aking	-12.2436
ung	-12.2442
LayoutHelper	-12.2442
GeneralS	-12.2457
registerMetric	-12.246
rial	-12.2461
Cancelled	-12.2498
ProxyInstance	-12.2498
FileAppender	-12.2499
compact	-12.2507
SuperColumn	-12.2511
VersionRange	-12.2513
hbase	-12.2515
NetworkEndpoint	-12.2517
NOTE	-12.2523
bytesTo	-12.2527
▁parm	-12.2543
▁skin	-12.2544
▁die	-12.2544
▁quota	-12.2545
inodes	-12.2559
nextProp	-12.2566
▁OtpErlang	-12.2571
WAR	-12.2573
observe	-12.2587
▁Bson	-12.2598
Addition	-12.2603
erator	-12.2604
Jndi	-12.2608
corner	-12.2612
▁unread	-12.2613
Preserve	-12.2615
Declare	-12.2621
Train	-12.2623
Pick	-12.2627
degree	-12.263
succeed	-12.2632
空	-12.2632
CreateOrUpdate	-12.2632
重	-12.2632
Glyph	-12.2632
Unauthorized	-12.2632
长度	-12.2632
Conformance	-12.2632
Development	-12.2632
Dummy	-12.2632
GENERAL	-12.2632
Hydrogen	-12.2632
Deterministic	-12.2632
FNLP	-12.2632
Fedora	-12.2632
HISTORY	-12.2632
Intermediate	-12.2632
Middleware	-12.2632
Migrate	-12.2632
NORTH	-12.2632
POJO	-12.2632
Piece	-12.2632
Pseudo	-12.2632
RESERVED	-12.2632
Recurrence	-12.2632
Rolling	-12.2632
SERIAL	-12.2632
SHUTDOWN	-12.2632
SUMMARY	-12.2632
Volatile	-12.2632
geometries	-12.2632
▁Therefore	-12.2632
▁epsilon	-12.2632
新	-12.2632
HIDDEN	-12.2632
Picture	-12.2632
Probabilities	-12.2632
SONAR	-12.2632
broken	-12.2632
▁Citrus	-12.2632
▁infinite	-12.2632
Composition	-12.2632
FORBIDDEN	-12.2632
Libraries	-12.2632
SCHEDULE	-12.2632
applicable	-12.2632
exponent	-12.2632
201805.	-12.2632
Dash	-12.2632
EMAIL	-12.2632
FAMILY	-12.2632
Infinispan	-12.2632
▁debugging	-12.2632
点	-12.2632
retention	-12.2632
FREE	-12.2632
PAYLOAD	-12.2632
TRANSFORM	-12.2632
▁integration	-12.2633
awaitTermination	-12.2633
▁persistenceUnit	-12.2633
vlan	-12.2633
percentage	-12.2633
protocolDataUnit	-12.2633
setConstraintMin	-12.2633
▁aborted	-12.2633
VoiceConnector	-12.2633
Spinner	-12.2633
ptAln	-12.2633
PollingStrategy	-12.2633
measurement	-12.2634
revoke	-12.2634
Slop	-12.2634
XSD	-12.2634
▁SortedMap	-12.2634
ChangedListener	-12.2636
blacklist	-12.2636
Overview	-12.2636
▁TAGS	-12.2637
NonZero	-12.2637
Shortcut	-12.2638
Recursively	-12.2638
smart	-12.2639
minimize	-12.2639
Optimizer	-12.264
CurrencyPair	-12.264
Expecting	-12.2641
JawrConfig	-12.2642
SerializedSize	-12.2642
ElemTemplate	-12.2644
fillRect	-12.2644
Translated	-12.2644
inning	-12.2646
PlaybackState	-12.2647
TypedValue	-12.2647
Allocated	-12.2647
getResponseCode	-12.2648
Halt	-12.2648
▁insertion	-12.265
nonNull	-12.265
appDef	-12.2652
CaseFormat	-12.2654
MavenProject	-12.2654
▁MethodSpec	-12.2656
clamp	-12.2657
PrettyPrint	-12.2657
▁conversationId	-12.266
("@"	-12.266
sToDelete	-12.2661
VideoFrame	-12.2661
▁aSB	-12.2662
putExtra	-12.2664
▁Dbx	-12.2666
GSSException	-12.2668
containing	-12.2671
transpose	-12.2671
related	-12.2671
DateLastModified	-12.2672
replica	-12.2672
gson	-12.2674
datePicker	-12.2674
clientIdentity	-12.2675
[...]
